// -----// IR Dump After SodaKernelOutlining (soda-outline-bambu-code) //----- //
#map = affine_map<(d0, d1, d2, d3) -> (0)>
#map1 = affine_map<(d0, d1, d2, d3) -> (d0, d1, d2, d3)>
#map2 = affine_map<(d0, d1, d2, d3) -> (d0, d1, d2, 0)>
#map3 = affine_map<(d0, d1) -> (d0, d1)>
#map4 = affine_map<(d0, d1) -> (d0, 0)>
module attributes {soda.container_module, tf.versions = {bad_consumers = [], min_consumer = 0 : i32, producer = 1882 : i32}} {
  memref.global "private" constant @__constant_1x5x5x1xf32 : memref<1x5x5x1xf32> = dense<[[[[0.187369764], [0.317208648], [0.24071151], [0.31959182], [-0.31765911]], [[0.00527250767], [-0.145045966], [-0.340863854], [-0.124282777], [-0.314932227]], [[-0.00279024243], [0.128039986], [-0.245543063], [-0.0257310271], [0.0292630196]], [[-0.159440607], [0.143667936], [-0.253523946], [-0.0281893313], [-0.281862706]], [[0.251600742], [0.0935258567], [-0.346047431], [0.0146496892], [0.20390445]]]]> {alignment = 64 : i64}
  memref.global "private" constant @__constant_1xf32 : memref<1xf32> = dense<0.000000e+00> {alignment = 64 : i64}
  memref.global "private" constant @__constant_1x256x8xf32 : memref<1x256x8xf32> = dense<"0xE45914BEBCB47C3DBC8F4E3D403584BD160700BE998719BEDCE31D3D40F116BE34BC3F3D083C85BC204289BC6CE4D33DFA016CBD00DC9EBA6BB7CABD3440533DAA3CB7BD142FA5BDE29B0FBDC800F4BC18AD8EBC0025D53DB6D8AC3DF840A73DC4CDD53D086E5CBDAA46183EF00D333D6297B83D1491423D6C410F3DECC7EEBD7671BFBD0490CABDE06FFBBB947D163E1496FA3D8AE2123E1A9EFFBD9B1F0BBE5C454DBDE02EF53D744D49BDF2500A3E6048943DE8DAE73C94860ABEE078B53BFCEE21BD3409DD3D3084A6BC6C8319BEFECB153E4C59053E583712BE7C351E3D2CB77C3DE8C275BDA6E140BDB0425D3CFC87F1BDE00D823CB831843C0A050ABE90A6FCBC08E817BDAC2CEC3DD8F383BD2100C7BDA1538DBDF936D3BDE0BE173D5EB6073E8057E83DFC69173ED859AB3CA074A2BB74FA0ABE00EA3DBB5C91DA3D5CB4E3BD905C4F3CD817EF3D5012D13D882DFB3CC84282BC803E10BE2846DCBCBCB3A93DA001AF3D3019173D2E5F97BD20E8093C2891D43D3039EA3CF05CE83C8058DFBC0A6C07BEC69FF4BD9E05913D6A69C7BDE073AABBA07C353CA24D023E96F0EDBD980EF63D7401B5BDD0B29FBC6075CC3DD33D84BD688B4E3D195194BD58D0D23CCCB3F9BDC8350B3E02EB033E74C3D7BCA856B0BDF871A63C3275B5BD68AFF8BDBAD27ABD2016A8BCB06AE63C0031AF3D50A9103D8A09F1BD2C8D7B3D7AED52BD8DF6E9BDE0A7C83CA0760EBD2A3FD0BD140F4D3DD679E7BDD4FDF73DB06D113C60D2C93BD052033CB409DE3D4846963D185E263D68B39A3D1047F63DD8408F3D807EBD3D58DEF23C40CA1CBC0F3683BD785A92BC0018693DA08F85BCA3F8DDBD8A03003EC78BC3BD97B3A3BDD83CC0BC0094DCBB229E003E5AB21CBD00B7E43D16D049BD7078D3BD98BEE23DD81B9FBCE8F4863C64D7BDBD8435053EC58A0ABED6AE853DF86EF13CE07F853D00F519BB7BC4A7BDC09FA3BBA267893D38D469BD6015C5BB00EA5CBBA82E033E721A38BD20DEA33BC883A13DE26501BDC6EC13BD108391BC38F2D43D420074BDE43BF23D2896863DECDBC2BD8067CDBC24BEC93DD0D13A3D8070F9BA584F203D203AFEBCF0D1DABCCCFF5BBD528D17BEE2315ABD529B88BD002BDE3C0A80B13D308C65BD0EC214BD63C3B0BD42FC043E987F51BD9834A93D9AF10EBD30F065BCCAC60A3E0058CABBA05BE93DE0A3613CDC94F03DAAF50D3E726D2ABDDFEB12BE202F253DCA4F903DC3FBC8BDE0480C3E90E70F3E38FD0EBE20B0E53DD82EBE3CCFF6ADBD1843093E962AA23D1C9C903DC861443D7FF300BEA9C716BEA85762BD025EFEBD7495EC3DC269C13DC0A594BCBA1B9A3D709713BC863C2ABD60E6E83BA8C4313DC4A405BE438FE8BD1C279CBD68D2ADBC5C830F3EC0C229BD5084ACBC605CD53C5CA95EBDC4F1673D805075BB5AA708BE94BB183D4694153E90F3E5BDD8C2A7BDBB3A15BE481390BC0E3BAABDDA0E23BD404D1DBB062125BDE5208ABDD81EA93C9C50743D400A2CBD0CC66D3D1A27973DE0D6303CB57F12BEB25B0EBEB0D70C3ED8C9C8BDB0DF143EE8C1E23D3C149FBD70F647BC72AD053EB04C7BBD17A1D5BDADF183BD44ABF53D8CEC4D3D384406BEEC92013D0C8FBFBD6F2715BE68AAE43D985AAE3DE34C19BE8CE4C0BD40BE083C2E83F9BD1C9909BEEC10E3BDF098EF3D4C50123EFD5D02BEA087B9BB80F3F23B180BBFBC1EE5A53D10777BBCFC3C143EFB0EC8BDF0C52BBCB8212DBDDCAE343DD47EFB3DB5C7BBBDA6380C3EE4F077BDC4D17BBDFECE0C3E209921BD0CFCE0BCB0FDC1BD9A36053E3CB9DF3DDADCBCBDAC45F63D4C43E6BD603AA8BB30B6903DA8834D3DF423E5BD6862D93D666659BDD899A6BC9A1812BDC0F5053C608FA7BB905C7CBC00FC5ABB889B96BCFE4DA8BD80E5523CAEAADFBD1450D03DACAB49BDE09C003CF75D9BBD6E420C3E1C36F33DFC6475BDA4AAD5BDC05A1D3DE46A273DE4EFC7BD684E6A3DB0CE393D90C9063D5894AD3D74743C3D387B02BE559FC0BD175A02BEE0FDA43D0C6F1E3DBE338B3D662B19BE008210BAB048A33DA86CEA3C605645BD36990CBE54C9E13D7853B8BD3D73FABDC4B0713D1E3D12BE00D92EBAD40E013D3037F63DF413323D48EBCBBDA80301BE1A9CC63D94AE18BD809D75BC7CED6F3D60C7003C36FA9F3DE811733DD8EE94BDBC15D73D6EFA41BDA84B773DD05B2ABC50305BBC20E0C73CC4D7763DA067EBBB4089C1BC808D7C3DEA6805BE00530B3EFEE5E1BD289FB33D1A7C4CBD707FCFBD16DB40BDF057063ECCB92FBD34F50F3E4E7D04BE8F83B8BD52CAB9BD00144E3BBE0AB63D4038433C5C820B3D9E700D3EEB7E86BD34C4113EE4B18E3D3C2B0F3D40D78D3C307A6E3C7873C43DA80DB2BD32870D3E1427F4BC6091F4BDA27085BDA8C0B93D786FCC3DE858E3BDC0AE363B1E33C3BDBC076C3D6069F23CF05D98BD37C69DBD9004EB3C5CD742BDF0157DBC3E15193EB4E6803DF24EB8BDB977F9BDF47E3DBD5A77003E5059CBBD103DE53DB274163EFE1E0A3E82E3993DACD6823D94FADE3DD12402BEF0B8BDBD44BC9C3D427C0DBE4ADD103E8488FEBCD0192C3D1EC00ABE00A0003BB036643D175689BD3648153EB8EEB53DF56D0ABE25A5A7BD78838FBCF8F97E3D00AD30BB6C1E6A3DACB506BEC0C7BA3B54355B3D531610BE40DB0B3C141CE6BDDE87983D18ED213D1A2517BD789DB23C1870F13DC83D61BD401208BB40C8DC3CA202013E10A2D23C000BE33A15AC96BD00ED063EE0244D3D005653BBC24B0C3E2E9FE6BD0FBCBABDF4B0F73D52DBB13D1818E63D1C87F4BC6873EC3D80369F3A720635BD80C6ED3DADCF05BE624AD2BD46CB13BE19EC12BE4E23C53D402806BDF142CBBDC0830B3B92589ABD658B87BD09CF14BEAC71913D60C2E1BC44EE063DD4A4293DEA15C63D93E188BDB09240BD3894BEBC3BB218BE704BB7BD58D9B0BD44AE09BDB8E5153E1851C13D116CCEBDE0AB9FBDE48FF63D782395BCD05416BE609CF13B878913BEE408003E2C3B473DD92316BECC663B3D1F1684BD6634FCBD901CE1BDC09502BB44CA033E4210163E12A10DBE313900BED049743C301B15BDA636ABBDC054F63BC6DF193E8C35F43DC0A4303B86DC11BDF6E4843DB41307BE07DA0EBE32910B3E4CAE72BDACB8BEBDB45FEEBC1F561ABEB0C7773D8A25153E4446833D5AAC85BDC66763BDF735B3BD0455C4BDF936B7BD3266913D587902BE80A5F8BC2436293DF25EA6BD6AE8073E303489BC186DA3BDD0F5FBBD6468DA3D4416313D2E5A893DE857C83DD0D1C93DF921A9BD701820BDCA72DEBDE033E33D040390BDCAE1073E98F30E3D78149C3D24EC07BDDF6215BE30B1EABD88618C3D085D20BD7AF4813DBC8ECD3D346D043E28574ABDB677B03DA0AAD33CCAF891BDB0E4603C8DEFABBDAD310FBE401DC63BA0C548BD74ED15BDC479103EF42F3B3D905BE43D9C9F113D24243C3D4AF5AF3DE21E8E3D44F2913D5678C53D188084BCB9A0D1BD508FF5BCB858183D575009BE803F223BDE07F3BD80DBA63AEFE68CBDB82CEFBD58FF1ABD010F10BEC05D413D50D56A3C884BCEBC2E73CA3DE1AC98BD325A2EBD56CFF4BDF2348A3DE4BBBB3DF8398F3C460496BDA0228FBBE4D8453D96A30D3EA048B9BCAC1BAF3D6C556E3DB475FB3DA0B7D8BBC0F16CBD60EC143D6A19BA3D4073C03C46FE09BE2013CEBB76ECBEBD2CA4E73D046C113DE2E8ACBD380F623D00A147BBDC6EC53DB4EB3A3DEF82C9BD50F1103EF436303DCCF4AF3D0028ECB93D19AEBD744C7B3D164209BECE62ADBDA003E8BBD5DDFEBD08C2B2BC1897C2BC9AB8CA3D384B5E3DE475B5BD2217003EB20905BE222AA03DA06D453D343E323D0071DBBBA4ADCC3D8CA9E83DD026A53C800DBC3CD36589BDDF62FFBD856C0CBE1264C13D3508EABD84CA44BD888BCE3D603B483D1394B3BD003C11BA0A31B83D342E74BD90647BBC008BC13D9DB2E7BD58E2CFBC3000A4BC17B697BDE005D63C3C109C3D92555ABD90F9D43D685E83BD7056033C828C0BBE003CF73B249B58BD9C3C213D9AE1023EEA6DCEBDAE4439BD1E4A05BDD56BE7BDAC74123E7E4CB73D7A4CF2BD5D220ABE70200EBEF07CE43D1FF811BE60CB0E3C322EA5BD4EABB0BD000AE43BA833EB3CFCCCD0BD9C570E3D48E4E5BDE8AFEBBD109CF13D30F5723D6425873D400561BDA4FD02BD70C55A3C9C99103EA819DC3DDAC7F0BDF01597BCBA11F4BD0C29E63DCAB11CBD14F1693DC04CC3BC9A5C073EB08E75BCECEC30BDC0488F3C4C3C62BD80C472BD7FCDB3BD90B4BFBC08C8DA3DEAB928BDC447D4BD102F39BC62ADF6BDA625C8BD06F1A43D6DBC8EBD8EEE14BE641917BE901D05BDBAAE853D84AA06BE35C790BDDCCF5B3DC01F11BCB032263D1A0C1ABD885F313DA6BB28BD982B143D50E70CBD5415C73DC000DF3B1A4AB9BD86C273BDDA60BB3D927F6BBD2016363C3C5710BDA0BD753D67F7F4BD14241CBDA964A8BD8021623BB02099BCD8E8ED3C8020733DE44B153E9CFC633DE39DAFBDCACB16BE42E1CCBD3D1111BE66C096BD5435DABD48F5DDBD520F863D74405B3D806248BDA08DBCBC8C4E11BD7638E6BD05D5C9BD5E21C5BD1C20EB3DECF209BE66BFCEBD90D3F83DD8D1F3BD7AB843BD8E9B16BE40ACC03B7084E33DA800C6BD009A483C842F7F3DB04BC4BC609D2FBDC44B1CBD64D1573D9C56543D94F8D03D4842D43D3898CE3DC08D6EBCC0CF633DBC7EDDBD76211FBDE85B41BDE2F5A2BD469A0F3E0C19193E44BBFF3D8864EEBC90B62E3D8086623D2089D9BBF44AF3BD989ABC3C6DB8FEBDD889D1BD0A41FBBD4EB80E3E3CABC4BDD893C7BCFA0C20BD0C0FCB3D531716BE4047013C17E68FBD9672A7BDFE760ABD32FD0A3E1C33D13D9416E23D349A753D506C093E9642C4BD5479D53D39D806BE4A6C893DE8BC8B3D2E610ABEF8101CBDA8DFF3BDF02B393C208A7F3D78F735BD063F9D3D9023E7BDCA1FBD3DA0C29B3B4A91013E6D15DBBD4CFEBA3D84B86D3D14A547BD727C6BBDBD8CDFBDA4DAEE3DA2A8CFBD8C9AE7BD50F80DBCBC39493DCD91BFBDC6D8FABD6851453D44EFA1BD1CE5B63D7834A33D3083603DC296063ED4ABD53D4614F7BD2EBDDCBD2862133E24C054BD804E233CEC1A02BE7C47173E28E6043DF2C9E8BD8E58B63D401CA3BB1A253DBD18E8B2BC58D9FDBC68C5693D20A3683C8AACD1BDF850A93D287116BEE803A13C6083EBBB74F1BDBD00288B3D80AEFB3A2506A3BD688B6B3D5EF6A8BD6C25F6BD6035D6BB2A70C8BDBA74C2BD4074063E826BB43D783F50BD928E3CBD5FA816BED23B80BD1E6E01BE58533BBD007909BCE067323C20AF41BDFC8D2E3D806FCBBB36E6173E607B463D10B48CBCDC436EBD8A57D6BDE06DC5BD90F36B3C3CD2083D4823E73D780B1EBD8AFA22BDC4BCEEBD641CE83D4C8B503DE0CE00BE726601BD72EF9D3DCAC78EBD92FF883DB451E0BD918C88BD9684A03DD031483CBE2905BDBCB8F63D0850F93DF826373DBCA2603DCEF4163E6671833DC8099EBC60D7ADBBB25675BD00B783BC6676A03D402FB33C3AAA003E7849BEBCC415E5BC956703BE6131DEBDD01F063CDBA2ADBDC8AD013E304AE33D2427E63D48BD0E3E366EC33D30EE433DB029593C88765D3D20DD5DBD72C100BEECA27B3D28E2E73C725FAC3D84DB29BD20C6D1BC0A130E3E4C20113D68C5473D0CBB0DBD7871D33D161196BDE00CDD3D02D933BD88F0F9BDE65A31BDB823D6BD2A98E3BDC074CE3DF6DF073E79A50FBE807BABBB32980A3ED029CFBCA0A41ABD608C5C3D38CDBE3CCC49643D0462123E807611BB0C45373D68A6003ED44E5ABDACC63BBD301CDF3CC817DD3CBCECF3BDE0DFF33D9B2FA5BD585505BEDA0D79BD2328F7BD807E973B087D483DFC2BD2BD3A3AD9BD5891023E58C8CE3D14850A3EF466B93DC219EEBD007A1D3CEA39A43DEA57023E340D6C3D34C10FBE5A46163E345902BE9C504EBDF014E13CC0A6FE3C520E6FBDE033323D86850B3E602EFBBBD4AC4ABD640C80BD89EFADBD386630BD8084E9BC8AA3143EA430D93D94B8CD3D4041F6BB6ABA11BD9A7946BDE4FA0DBD483B053EB0EE863D2A2716BEEA91CA3D70B213BC00B85A3AC0F93BBB84B9C53D744B193E0889FD3D66540BBE089EAB3D3221C5BDA4342FBDCCF9E1BDFA9900BE0036BF3C2DF39CBD76E7E1BD38B3E13C00CB08BAB8FE5CBD2043B1BCB8BCEA3D04AE37BD90D25A3C0026D63BA80FFFBDE01E8DBCC04C35BB0C63E6BD8C042DBD5CBDC33D1688133E30B3E53D6EDF0ABEAC651D3DE0E37ABD300692BDECA6C73DCC40E8BDA2F2183E6033D43C54F7EABD9003633D007F8FBA5071AE3CAAFCBD3D5E8608BEFE05EFBD1076793DA891223DF26764BD1004733CE0D4163E5827FFBC90F2953D3890AD3D9078153E04C4E6BCC4522A3D9E0F7EBD18F2613D7DAA07BEF832BA3CA0435D3DB4C33FBD208C513CE641973DAE7910BE98142D3D7029193EFBC3AABDA2E817BEFCE14B3D42B7ECBD72AD0C3E4206883D36E8193ED8EA84BC6018EEBB77D683BD1C3AD53D08DFCC3D83E704BEA0C29ABBB4D2363D2A767CBD88B5633D74D2F93D0C0D153D8AEF063E6E141ABDB07A043E3034E7BD349DDDBC8C2ABEBD466DFFBDCC69FABDB4AD07BE3A0BBDBD8CD56F3D5C050DBEECFAAFBD00696DBA70E2DF3DD04608BC64200E3D9C83D53DD46DE33D529EFBBD50840B3D407DBA3B00412A3CC003B4BCA88695BDD4465F3DC885923D80F692BC7451E63D14C2323D16984DBD09E615BEEE1093BD9C26BCBDD0DD9F3DC0E05C3B14DF353D816A03BE1CA2EABD646903BD9CBFBD3D60DFF03CE4F7E23D28F9573DFC04A6BD0811BDBD62136ABD83DFA0BDC452AC3DF05AB13CA8A99D3C4BABE3BD000D613AF835D13D201BC93C42F476BD048A76BD6A44FBBDA2BEAC3DC4CA14BE7077CC3D2010BF3B5E4D0C3E36F505BEE8A693BC30D0193CF47A023E406437BB70278E3CB0A9003E821AB03D43CE06BE986CCDBDA4841C3D06CB0BBE649A8DBDE0270C3CFC8D153D2E98893D1205DBBDAE6AB43D215514BE902F17BE483614BEE83519BE6CF0E83D812214BEE882ABBC20D2DE3DB61FDABD14B9433D0477023D457E10BEA095DB3DBF59CCBD74AEAF3DA3A7FFBD382DCEBD58728E3DCC4C913DF066D8BCF804993CD81ACB3D4CB77C3D70AE803CA4C3403D7ED218BE06B2093EB8871ABD4CCC2B3DBCD147BD1A54F7BDD0E26DBC004E1EBAAE773FBD1E1380BD047F66BD48C5B1BCDEBECDBD482F903DB8999C3D64EE1CBDAA49183E784137BDD4509BBDE8FEC73D005C1EBAC062E43CBC47AA3D5C9FD13D7CDB3D3D907E533CDAA6A4BD6FFC94BDC60005BD149CF8BCE5959BBD74A8F9BD1438C83D481CBD3DBCE2F7BD8381B2BD9915BFBD30F0B03C0C1CAFBDD07A7DBC34EA543D9805223D068579BD0421EFBD707C9DBCECC5F3BC78D0EABCDA8EA93D0CFE3F3D1AF9CFBD78958D3DC41C143E28DAEC3D30BCEA3CB0FC603D78F4F0BCE41D0F3DC292CFBD30D2D83D96FA10BEB887F63D9B8EBABD001DB2BB0C1358BD94E2F5BD512F97BD4090B0BCC82DBF3CB8CE2F3DAEC2D1BDA0B6DD3DD2CAC7BDDC94923DF65BB43DE43FDFBD562906BEEA5ABABD62E7E1BDB01385BC6858833C3C22103EE049EBBB6E1A4DBD944CB43D6636A93D645A9D3D7AC0053E700CE03CEC19623D1A8DA73DB8EB0A3E40050CBEC2AC0C3E446AD1BD14E6D6BD682129BD5839CC3D28BDCC3D2CBEDF3D1780DDBD4CB2B83D1C080F3E80920E3BB47422BDD6ADC73D15A310BEA2446DBD4453953D5CA3073EA6BAFFBDC41E30BD259916BED40F083D7084E4BCBE2ED6BD00829F3BDEBDE8BD4041F2BB337508BE0677E6BD1C7011BEA0FC0EBE3EA95ABD986712BD680250BDFEB905BE30FAF2BD1617983D249D0DBEF0DEE03D84DA1FBD622596BD2E999E3D48759EBD246A3BBDEEE9E1BD3E0185BDBCB1DF3D941B0D3EB07252BD08A4D63DBC47013EBC9044BD6369AFBD442309BD3E9B053E200466BCA491DFBCC6C3E3BD10122DBC94369BBD01000CBE4227A33DC82EB93DFC87F0BDF833C83C20D57E3C0CCF87BD2080A63C9EC072BD78BC53BDE5F4EABDD2B3AE3D468C82BDD08802BCF85B543D60873CBC28C0EA3D2022293D8015AFBB40AE823BBA3B163E4DBC9BBDB6A7FFBDC0E11B3D17C311BE80BC8E3D1ED3A53DBB9782BD7846B03D97A918BEF045AFBD175F05BEDB9B0CBEB21C12BECEE650BDEC74113D88B4CD3CD258A73DC63BAC3D1C1F563DFCF0B53DD8245CBD6616BA3D7071E9BC4495F63D7C21123E5628B0BD70BECC3CBDB1F7BDE7C617BE839FA8BD6CD4BA3D10E0E83D14EEB3BDEC29CD3DDA64043E0A27AA3D88CAAEBCD0D9E33D94A27D3D613CF9BD06BE6BBD5032ACBC1810003EF02CCE3D886DC83C9D11D8BD4E92BB3D42B6193E044956BD2809FDBC80CBF83B9BFA10BE3F33E9BD2083603C4CB3DE3DC2B99D3D48B0753D0C28DC3DF42566BD62A5CA3DE63F34BDBC20023E34DE8ABD0C76DFBC228332BDFC7E1EBDD436263DF0575BBCE86D3E3DACBB613D9A5CA1BDF47ED0BDE0DDF73DB7A890BD7EA28EBD9CAE1F3D08B3BC3C48FB32BDC508AFBD8C9458BD0282AA3D3CF00DBE3C07E3BDD5640DBE369B0EBEB0B7893DC48BED3DAF7B92BD0E51B63D8C9EF13DD08B7E3C28D0BA3C587AC13D06C19A3D4C7983BD989D91BC14C5D33D108183BD4092D13DF0FA5BBC8A0BC3BD201C0A3E9EF1953D45CB8CBD5487FABD78BEA73D9EF4043EC45F173E3841843D9CBE013D58CFCEBC1416CEBD6036643C12D0CBBD105B3D3C6FC2D9BDAE73A8BD0204043E9E659C3D84AC773DC6367EBD7C57CF3D586EC33D120300BEF4FECA3D74C131BD02F601BED8A2143E6839133DB8D70DBE30A18ABD00E234BBB8AFE1BD28D2393DDC94E8BD6CE20EBE404D1FBB822527BD10689A3D3804ABBD78AAA13D40D8E2BBE43D733D78E08D3DE8B8D73D0CF8FFBD70C2E43D60AFDABB16C556BDAEA0163E82A20A3EC03CAE3C92BD64BDC842873C5C9C93BD80DF7ABD04D5E0BC682C033DAE22B8BD9802153EF0293C3D98248D3D800437BB74B7E7BDA93A17BE80E8D1BB80A75DBC385FA4BC3CB5813DAA7DE0BDA45CFA3D6033B73DEAA1083EA6E69F3D78CE953DAFE0F8BD542CC33DDBBBD9BDDC0059BD30CFEA3C00D012BC77CE9BBDB0A9653CC9FC08BE34442B3D62FBBCBD20154BBCB4D0033D18FB053E3E32BE3DE0F30D3E585C25BDDC39DEBDF64317BEAEB203BE38ABDC3DA024A93B388FA1BC7ED5B6BD6402DCBCC05AFA3B601EB4BDB3F290BD24CC323DECE0F6BD0860FABC3CE26E3D4ECA0FBE50F401BC480392BCCA35CBBD9E31DBBD2EB8ECBDC8DBF33D5AD1163E0A0D78BD8C09B93D860C58BD541C053D60038BBC32DB8C3DD6EDB63DD0929F3D574896BD63DEA3BD58DFF43D4C3641BDCE4AFDBD483BB6BC806E603DA6AA013E03D6D9BD88DB913C1C84E1BC2690003E50D10ABCDC02C6BD7C1FA9BD1A47D1BD5B2FE4BD3C59653DB21982BDE872673DC080B23BE0E3DA3CC98413BE003E8AB978ACE8BD8849A33C38ECC2BC02FDF8BD780DB0BC40296ABBA07150BC261CD7BD9451173D64239A3D0FA7C9BD19DF00BEE2F4EFBD083414BE5411BA3D28CECDBC921C3EBD1493483DA8D5D53CA8CFAFBCA0D1103E0AFEC73D1872CDBD508AE53DB45AD43D58E30E3EF6C462BDB4D9F73DE8A8BD3CA85FDBBCC49EDDBD780205BD38A4E23D8C86B53DB8F7FA3DD4CC223DC0D9ED3DC668BFBD78A99CBC90A584BCA076333C808928BC001F133B52B5183EF88980BD20C3EE3CA0C1C5BC3CBE79BD140C273D8AEF2FBD08231B3DF457DDBDC06912BCBC50B7BD100DD53DA41F06BE9CFE033DA2CB52BDB098473CF792AABD782D733DECDBE23D1480423D3C3015BEA53784BD80EDA6BC588E31BDE6F522BD583AB2BC3043853C741A043E60723F3D74FD7D3D0092A439961707BE16D803BE766A883D1EEFE6BDE65DA83DA026BA3C106A1D3CCC370C3DE676053E4DCC93BD9390ACBD42D09CBD08D9C73D704951BD68045B3DE051073CE4480FBD9873A43D000AA2BA008CED3D92E39BBD1673B6BD30D24DBC408BE0BDB0C831BC54E12D3DA9A5DABD7AC4073E6A44E9BD2845213D020013BE01C3BFBD5A989D3D5812813D944CA83DE0AEA63C407489BCD9179EBDB8F2EC3C84E2133EF2BE46BD98B4823C70CD2C3D9CEE973D4AE9173EF4EEB9BD0048D739784FE83CE0CAD8BB7C8468BDC411FCBC0C041C3D00D2FD3A0A3E013ED843C1BDE9DDF6BD5CAC7E3DEE800B3E1C9546BD20AC043DD01B6D3DD4E012BE7914FCBD7637143E401EB83D186BFB3D1F0BC9BD74DAD23D9E8905BDE40D41BD00AA013E4474693D7475C6BDD4880B3E653BA0BD7078C9BD1CBCE93DB15BCFBDE024473C26CFB23D48EBAFBDF6F1BEBD9CF6FD3D342566BDB82AF63DCE820A3EE6E4C63D33AF91BD6F9DA5BD5844D8BC5823993C40B6723C606C4FBC2866ECBC24C271BDEEBC9F3DB45CCC3D302A72BC469856BD13E016BE5462983D881A0B3D4EE5123E1C4A8CBD90DDC7BCF077A03C400BBFBDE4FA02BE788DEC3DF010323D7E1270BD635B01BEC0E9F4BB78F1973DE09BC6BB2C350B3DA44FF1BD00264B3BD404E53D2060173DF92D19BED748A4BD4568C0BD6CD7DE3D03A400BE8E2BAE3D8D8CFCBD48E1AA3D11FF17BE607DDB3D4A9DB43D71149FBD38226D3D64C3153E60002FBC5C0036BD0615E1BD207C0D3EAECF08BE204575BCCE28163EB06970BC64CAD83D32170CBD6A70A53DC0B8973BC0B84B3CEC30F53D7C52793D104D5DBCEECFACBD42D38B3D2057C53CD0AED13DD080AE3C2060A53B0EE1BB3D8EF3CDBD78F9A5BD5E0459BD4445E9BC7CE5743D322275BDC4B4B93DDD688BBD5873C3BC12C9F8BDEC17BABD8C77F73D1A74143EBCA0803D40BCB23DA09320BC64185F3D30D6723C183E99BDDED6183E24CB0F3E5601BD3D00415E3D20A1CBBC4E1514BED05D023E2060633D09ACF0BDE41A203DE030053EEAD1C33DA0359D3DECE1F73D7CC7163D60C318BC332EA7BDE0DF8F3D906BB33C1E079FBD3D7DE4BDC65A973D7872143ECA55CDBDFE620A3E5493FA3D5AACAB3D6C4F94BD82C91BBD7A2E0A3EF035403D53A1FFBDDAEEA03DD2B9A03D3632CEBDC03249BCFE580ABE4E27BC3D7BA512BE329AA63D369211BEB9DFA2BD00FF183E326FE3BDDB67D3BD16AFAB3DC026A63D8FCB86BD388F813CE2D202BEA0FB46BD660F36BD7CCD6F3DE5B7D7BD24D5C33D9299AFBD3614183E468137BD0001AE3BE1B997BD4AE928BDA6174FBD7D3409BEE09BD63BFC310FBE0E05133E1A8CA93D5A0FEBBD4EAC803DC62E5BBD794C0FBE702BCDBC00ACC3BDD602FDBD815693BD380001BED172D0BDA49F28BD92BC02BEB0B3FBBD2A7A97BD710C08BEF02F053C701CCCBCAC83FB3D6CFE033D508A0F3DCF211ABE481972BD90D7B0BCAA850E3ED0FE7F3DA082C5BD963C51BDA037173C65090FBE475FD1BD64DDAE3D687BF83D"> {alignment = 64 : i64}
  memref.global "private" constant @__constant_1x8x4xf32 : memref<1x8x4xf32> = dense<[[[0.698632538, -0.34189117, -0.422249705, 0.0148819089], [-0.238211125, -0.0309978127, 0.41851598, 0.293587506], [-0.642848312, -0.359199047, -0.678803802, 0.03303653], [-0.698414564, -0.502943397, -0.148357093, 0.129342258], [-0.141768157, -0.148408175, -0.208009869, -2.968030e-01], [6.094020e-01, 8.139920e-02, -0.671867967, -0.303727537], [-0.591796041, -0.388902962, -0.604529262, -0.0494864583], [-0.569168925, 0.389392674, -0.58365041, -0.640111327]]]> {alignment = 64 : i64}
  memref.global "private" constant @__constant_1x4x2xf32 : memref<1x4x2xf32> = dense<[[[-0.980995178, -0.838457584], [0.45938921, 0.0730445384], [-0.741803885, 0.636193752], [0.272650242, 0.155854464]]]> {alignment = 64 : i64}
  func.func @main(%arg0: memref<4x32x32x1xf32>, %arg1: memref<4x2xf32>) attributes {tf.entry_function = {control_outputs = "", inputs = "x1", outputs = "Identity"}} {
    %cst = arith.constant 0.000000e+00 : f32
    %cst_0 = arith.constant 1.000000e+00 : f32
    %cst_1 = arith.constant -3.40282347E+38 : f32
    %cst_2 = arith.constant 3.40282347E+38 : f32
    %0 = memref.get_global @__constant_1x4x2xf32 : memref<1x4x2xf32>
    %1 = memref.get_global @__constant_1x8x4xf32 : memref<1x8x4xf32>
    %2 = memref.get_global @__constant_1x256x8xf32 : memref<1x256x8xf32>
    %3 = memref.get_global @__constant_1xf32 : memref<1xf32>
    %4 = memref.get_global @__constant_1x5x5x1xf32 : memref<1x5x5x1xf32>
    %alloc = memref.alloc() {alignment = 64 : i64} : memref<4x35x35x1xf32>
    linalg.fill ins(%cst : f32) outs(%alloc : memref<4x35x35x1xf32>)
    %subview = memref.subview %alloc[0, 1, 1, 0] [4, 32, 32, 1] [1, 1, 1, 1] : memref<4x35x35x1xf32> to memref<4x32x32x1xf32, strided<[1225, 35, 1, 1], offset: 36>>
    memref.copy %arg0, %subview : memref<4x32x32x1xf32> to memref<4x32x32x1xf32, strided<[1225, 35, 1, 1], offset: 36>>
    %alloc_3 = memref.alloc() {alignment = 64 : i64} : memref<4x16x16x1xf32>
    linalg.generic {indexing_maps = [#map, #map1], iterator_types = ["parallel", "parallel", "parallel", "parallel"]} ins(%3 : memref<1xf32>) outs(%alloc_3 : memref<4x16x16x1xf32>) {
    ^bb0(%in: f32, %out: f32):
      linalg.yield %in : f32
    }
    linalg.conv_2d_nhwc_fhwc {dilations = dense<1> : tensor<2xi64>, strides = dense<2> : tensor<2xi64>} ins(%alloc, %4 : memref<4x35x35x1xf32>, memref<1x5x5x1xf32>) outs(%alloc_3 : memref<4x16x16x1xf32>)
    %alloc_4 = memref.alloc() {alignment = 64 : i64} : memref<4x16x16x1xf32>
    linalg.generic {indexing_maps = [#map2, #map1], iterator_types = ["parallel", "parallel", "parallel", "parallel"]} ins(%alloc_3 : memref<4x16x16x1xf32>) outs(%alloc_4 : memref<4x16x16x1xf32>) {
    ^bb0(%in: f32, %out: f32):
      %5 = arith.minimumf %in, %cst_2 : f32
      %6 = arith.maximumf %5, %cst : f32
      linalg.yield %6 : f32
    }
    %collapse_shape = memref.collapse_shape %alloc_4 [[0], [1, 2, 3]] : memref<4x16x16x1xf32> into memref<4x256xf32>
    %expand_shape = memref.expand_shape %collapse_shape [[0, 1], [2]] output_shape [1, 4, 256] : memref<4x256xf32> into memref<1x4x256xf32>
    %alloc_5 = memref.alloc() {alignment = 64 : i64} : memref<1x4x8xf32>
    linalg.fill ins(%cst : f32) outs(%alloc_5 : memref<1x4x8xf32>)
    linalg.batch_matmul ins(%expand_shape, %2 : memref<1x4x256xf32>, memref<1x256x8xf32>) outs(%alloc_5 : memref<1x4x8xf32>)
    %collapse_shape_6 = memref.collapse_shape %alloc_5 [[0, 1], [2]] : memref<1x4x8xf32> into memref<4x8xf32>
    %alloc_7 = memref.alloc() {alignment = 64 : i64} : memref<4x8xf32>
    linalg.generic {indexing_maps = [#map3, #map3], iterator_types = ["parallel", "parallel"]} ins(%collapse_shape_6 : memref<4x8xf32>) outs(%alloc_7 : memref<4x8xf32>) {
    ^bb0(%in: f32, %out: f32):
      %5 = arith.minimumf %in, %cst_2 : f32
      %6 = arith.maximumf %5, %cst : f32
      linalg.yield %6 : f32
    }
    %expand_shape_8 = memref.expand_shape %alloc_7 [[0, 1], [2]] output_shape [1, 4, 8] : memref<4x8xf32> into memref<1x4x8xf32>
    %alloc_9 = memref.alloc() {alignment = 64 : i64} : memref<1x4x4xf32>
    linalg.fill ins(%cst : f32) outs(%alloc_9 : memref<1x4x4xf32>)
    soda.launch_func  @main_kernel::@main_kernel args(%expand_shape_8 : memref<1x4x8xf32>, %1 : memref<1x8x4xf32>, %alloc_9 : memref<1x4x4xf32>)
    %collapse_shape_10 = memref.collapse_shape %alloc_9 [[0, 1], [2]] : memref<1x4x4xf32> into memref<4x4xf32>
    %alloc_11 = memref.alloc() {alignment = 64 : i64} : memref<4x4xf32>
    linalg.generic {indexing_maps = [#map3, #map3], iterator_types = ["parallel", "parallel"]} ins(%collapse_shape_10 : memref<4x4xf32>) outs(%alloc_11 : memref<4x4xf32>) {
    ^bb0(%in: f32, %out: f32):
      %5 = arith.minimumf %in, %cst_2 : f32
      %6 = arith.maximumf %5, %cst : f32
      linalg.yield %6 : f32
    }
    %expand_shape_12 = memref.expand_shape %alloc_11 [[0, 1], [2]] output_shape [1, 4, 4] : memref<4x4xf32> into memref<1x4x4xf32>
    %alloc_13 = memref.alloc() {alignment = 64 : i64} : memref<1x4x2xf32>
    linalg.fill ins(%cst : f32) outs(%alloc_13 : memref<1x4x2xf32>)
    linalg.batch_matmul ins(%expand_shape_12, %0 : memref<1x4x4xf32>, memref<1x4x2xf32>) outs(%alloc_13 : memref<1x4x2xf32>)
    %collapse_shape_14 = memref.collapse_shape %alloc_13 [[0, 1], [2]] : memref<1x4x2xf32> into memref<4x2xf32>
    %alloc_15 = memref.alloc() {alignment = 64 : i64} : memref<4xf32>
    linalg.fill ins(%cst_1 : f32) outs(%alloc_15 : memref<4xf32>)
    linalg.reduce ins(%collapse_shape_14 : memref<4x2xf32>) outs(%alloc_15 : memref<4xf32>) dimensions = [1] 
      (%in: f32, %init: f32) {
        %5 = arith.maximumf %in, %init : f32
        linalg.yield %5 : f32
      }
    %expand_shape_16 = memref.expand_shape %alloc_15 [[0, 1]] output_shape [4, 1] : memref<4xf32> into memref<4x1xf32>
    %alloc_17 = memref.alloc() {alignment = 64 : i64} : memref<4x2xf32>
    linalg.generic {indexing_maps = [#map3, #map4, #map3], iterator_types = ["parallel", "parallel"]} ins(%collapse_shape_14, %expand_shape_16 : memref<4x2xf32>, memref<4x1xf32>) outs(%alloc_17 : memref<4x2xf32>) {
    ^bb0(%in: f32, %in_23: f32, %out: f32):
      %5 = arith.subf %in, %in_23 : f32
      linalg.yield %5 : f32
    }
    %alloc_18 = memref.alloc() {alignment = 64 : i64} : memref<4x2xf32>
    linalg.generic {indexing_maps = [#map3, #map3], iterator_types = ["parallel", "parallel"]} ins(%alloc_17 : memref<4x2xf32>) outs(%alloc_18 : memref<4x2xf32>) {
    ^bb0(%in: f32, %out: f32):
      %5 = math.exp %in : f32
      linalg.yield %5 : f32
    }
    %alloc_19 = memref.alloc() {alignment = 64 : i64} : memref<4xf32>
    linalg.fill ins(%cst : f32) outs(%alloc_19 : memref<4xf32>)
    linalg.reduce ins(%alloc_18 : memref<4x2xf32>) outs(%alloc_19 : memref<4xf32>) dimensions = [1] 
      (%in: f32, %init: f32) {
        %5 = arith.addf %in, %init : f32
        linalg.yield %5 : f32
      }
    %expand_shape_20 = memref.expand_shape %alloc_19 [[0, 1]] output_shape [4, 1] : memref<4xf32> into memref<4x1xf32>
    %alloc_21 = memref.alloc() {alignment = 64 : i64} : memref<4x1xf32>
    linalg.generic {indexing_maps = [#map4, #map3], iterator_types = ["parallel", "parallel"]} ins(%expand_shape_20 : memref<4x1xf32>) outs(%alloc_21 : memref<4x1xf32>) {
    ^bb0(%in: f32, %out: f32):
      %5 = arith.divf %cst_0, %in : f32
      linalg.yield %5 : f32
    }
    %alloc_22 = memref.alloc() {alignment = 64 : i64} : memref<4x2xf32>
    linalg.generic {indexing_maps = [#map3, #map4, #map3], iterator_types = ["parallel", "parallel"]} ins(%alloc_18, %alloc_21 : memref<4x2xf32>, memref<4x1xf32>) outs(%alloc_22 : memref<4x2xf32>) {
    ^bb0(%in: f32, %in_23: f32, %out: f32):
      %5 = arith.mulf %in, %in_23 : f32
      linalg.yield %5 : f32
    }
    memref.copy %alloc_22, %arg1 : memref<4x2xf32> to memref<4x2xf32>
    return
  }
  soda.module @main_kernel {
    soda.func @main_kernel(%arg0: memref<1x4x8xf32>, %arg1: memref<1x8x4xf32>, %arg2: memref<1x4x4xf32>) kernel {
      cf.br ^bb1
    ^bb1:  // pred: ^bb0
      linalg.batch_matmul ins(%arg0, %arg1 : memref<1x4x8xf32>, memref<1x8x4xf32>) outs(%arg2 : memref<1x4x4xf32>)
      soda.return
    }
  }
}


// -----// IR Dump After TestArgumentsToCTestbench (soda-extract-arguments-to-c-testbench) //----- //
#map = affine_map<(d0, d1, d2, d3) -> (0)>
#map1 = affine_map<(d0, d1, d2, d3) -> (d0, d1, d2, d3)>
#map2 = affine_map<(d0, d1, d2, d3) -> (d0, d1, d2, 0)>
#map3 = affine_map<(d0, d1) -> (d0, d1)>
#map4 = affine_map<(d0, d1) -> (d0, 0)>
module attributes {soda.container_module, tf.versions = {bad_consumers = [], min_consumer = 0 : i32, producer = 1882 : i32}} {
  memref.global "private" constant @__constant_1x5x5x1xf32 : memref<1x5x5x1xf32> = dense<[[[[0.187369764], [0.317208648], [0.24071151], [0.31959182], [-0.31765911]], [[0.00527250767], [-0.145045966], [-0.340863854], [-0.124282777], [-0.314932227]], [[-0.00279024243], [0.128039986], [-0.245543063], [-0.0257310271], [0.0292630196]], [[-0.159440607], [0.143667936], [-0.253523946], [-0.0281893313], [-0.281862706]], [[0.251600742], [0.0935258567], [-0.346047431], [0.0146496892], [0.20390445]]]]> {alignment = 64 : i64}
  memref.global "private" constant @__constant_1xf32 : memref<1xf32> = dense<0.000000e+00> {alignment = 64 : i64}
  memref.global "private" constant @__constant_1x256x8xf32 : memref<1x256x8xf32> = dense<"0xE45914BEBCB47C3DBC8F4E3D403584BD160700BE998719BEDCE31D3D40F116BE34BC3F3D083C85BC204289BC6CE4D33DFA016CBD00DC9EBA6BB7CABD3440533DAA3CB7BD142FA5BDE29B0FBDC800F4BC18AD8EBC0025D53DB6D8AC3DF840A73DC4CDD53D086E5CBDAA46183EF00D333D6297B83D1491423D6C410F3DECC7EEBD7671BFBD0490CABDE06FFBBB947D163E1496FA3D8AE2123E1A9EFFBD9B1F0BBE5C454DBDE02EF53D744D49BDF2500A3E6048943DE8DAE73C94860ABEE078B53BFCEE21BD3409DD3D3084A6BC6C8319BEFECB153E4C59053E583712BE7C351E3D2CB77C3DE8C275BDA6E140BDB0425D3CFC87F1BDE00D823CB831843C0A050ABE90A6FCBC08E817BDAC2CEC3DD8F383BD2100C7BDA1538DBDF936D3BDE0BE173D5EB6073E8057E83DFC69173ED859AB3CA074A2BB74FA0ABE00EA3DBB5C91DA3D5CB4E3BD905C4F3CD817EF3D5012D13D882DFB3CC84282BC803E10BE2846DCBCBCB3A93DA001AF3D3019173D2E5F97BD20E8093C2891D43D3039EA3CF05CE83C8058DFBC0A6C07BEC69FF4BD9E05913D6A69C7BDE073AABBA07C353CA24D023E96F0EDBD980EF63D7401B5BDD0B29FBC6075CC3DD33D84BD688B4E3D195194BD58D0D23CCCB3F9BDC8350B3E02EB033E74C3D7BCA856B0BDF871A63C3275B5BD68AFF8BDBAD27ABD2016A8BCB06AE63C0031AF3D50A9103D8A09F1BD2C8D7B3D7AED52BD8DF6E9BDE0A7C83CA0760EBD2A3FD0BD140F4D3DD679E7BDD4FDF73DB06D113C60D2C93BD052033CB409DE3D4846963D185E263D68B39A3D1047F63DD8408F3D807EBD3D58DEF23C40CA1CBC0F3683BD785A92BC0018693DA08F85BCA3F8DDBD8A03003EC78BC3BD97B3A3BDD83CC0BC0094DCBB229E003E5AB21CBD00B7E43D16D049BD7078D3BD98BEE23DD81B9FBCE8F4863C64D7BDBD8435053EC58A0ABED6AE853DF86EF13CE07F853D00F519BB7BC4A7BDC09FA3BBA267893D38D469BD6015C5BB00EA5CBBA82E033E721A38BD20DEA33BC883A13DE26501BDC6EC13BD108391BC38F2D43D420074BDE43BF23D2896863DECDBC2BD8067CDBC24BEC93DD0D13A3D8070F9BA584F203D203AFEBCF0D1DABCCCFF5BBD528D17BEE2315ABD529B88BD002BDE3C0A80B13D308C65BD0EC214BD63C3B0BD42FC043E987F51BD9834A93D9AF10EBD30F065BCCAC60A3E0058CABBA05BE93DE0A3613CDC94F03DAAF50D3E726D2ABDDFEB12BE202F253DCA4F903DC3FBC8BDE0480C3E90E70F3E38FD0EBE20B0E53DD82EBE3CCFF6ADBD1843093E962AA23D1C9C903DC861443D7FF300BEA9C716BEA85762BD025EFEBD7495EC3DC269C13DC0A594BCBA1B9A3D709713BC863C2ABD60E6E83BA8C4313DC4A405BE438FE8BD1C279CBD68D2ADBC5C830F3EC0C229BD5084ACBC605CD53C5CA95EBDC4F1673D805075BB5AA708BE94BB183D4694153E90F3E5BDD8C2A7BDBB3A15BE481390BC0E3BAABDDA0E23BD404D1DBB062125BDE5208ABDD81EA93C9C50743D400A2CBD0CC66D3D1A27973DE0D6303CB57F12BEB25B0EBEB0D70C3ED8C9C8BDB0DF143EE8C1E23D3C149FBD70F647BC72AD053EB04C7BBD17A1D5BDADF183BD44ABF53D8CEC4D3D384406BEEC92013D0C8FBFBD6F2715BE68AAE43D985AAE3DE34C19BE8CE4C0BD40BE083C2E83F9BD1C9909BEEC10E3BDF098EF3D4C50123EFD5D02BEA087B9BB80F3F23B180BBFBC1EE5A53D10777BBCFC3C143EFB0EC8BDF0C52BBCB8212DBDDCAE343DD47EFB3DB5C7BBBDA6380C3EE4F077BDC4D17BBDFECE0C3E209921BD0CFCE0BCB0FDC1BD9A36053E3CB9DF3DDADCBCBDAC45F63D4C43E6BD603AA8BB30B6903DA8834D3DF423E5BD6862D93D666659BDD899A6BC9A1812BDC0F5053C608FA7BB905C7CBC00FC5ABB889B96BCFE4DA8BD80E5523CAEAADFBD1450D03DACAB49BDE09C003CF75D9BBD6E420C3E1C36F33DFC6475BDA4AAD5BDC05A1D3DE46A273DE4EFC7BD684E6A3DB0CE393D90C9063D5894AD3D74743C3D387B02BE559FC0BD175A02BEE0FDA43D0C6F1E3DBE338B3D662B19BE008210BAB048A33DA86CEA3C605645BD36990CBE54C9E13D7853B8BD3D73FABDC4B0713D1E3D12BE00D92EBAD40E013D3037F63DF413323D48EBCBBDA80301BE1A9CC63D94AE18BD809D75BC7CED6F3D60C7003C36FA9F3DE811733DD8EE94BDBC15D73D6EFA41BDA84B773DD05B2ABC50305BBC20E0C73CC4D7763DA067EBBB4089C1BC808D7C3DEA6805BE00530B3EFEE5E1BD289FB33D1A7C4CBD707FCFBD16DB40BDF057063ECCB92FBD34F50F3E4E7D04BE8F83B8BD52CAB9BD00144E3BBE0AB63D4038433C5C820B3D9E700D3EEB7E86BD34C4113EE4B18E3D3C2B0F3D40D78D3C307A6E3C7873C43DA80DB2BD32870D3E1427F4BC6091F4BDA27085BDA8C0B93D786FCC3DE858E3BDC0AE363B1E33C3BDBC076C3D6069F23CF05D98BD37C69DBD9004EB3C5CD742BDF0157DBC3E15193EB4E6803DF24EB8BDB977F9BDF47E3DBD5A77003E5059CBBD103DE53DB274163EFE1E0A3E82E3993DACD6823D94FADE3DD12402BEF0B8BDBD44BC9C3D427C0DBE4ADD103E8488FEBCD0192C3D1EC00ABE00A0003BB036643D175689BD3648153EB8EEB53DF56D0ABE25A5A7BD78838FBCF8F97E3D00AD30BB6C1E6A3DACB506BEC0C7BA3B54355B3D531610BE40DB0B3C141CE6BDDE87983D18ED213D1A2517BD789DB23C1870F13DC83D61BD401208BB40C8DC3CA202013E10A2D23C000BE33A15AC96BD00ED063EE0244D3D005653BBC24B0C3E2E9FE6BD0FBCBABDF4B0F73D52DBB13D1818E63D1C87F4BC6873EC3D80369F3A720635BD80C6ED3DADCF05BE624AD2BD46CB13BE19EC12BE4E23C53D402806BDF142CBBDC0830B3B92589ABD658B87BD09CF14BEAC71913D60C2E1BC44EE063DD4A4293DEA15C63D93E188BDB09240BD3894BEBC3BB218BE704BB7BD58D9B0BD44AE09BDB8E5153E1851C13D116CCEBDE0AB9FBDE48FF63D782395BCD05416BE609CF13B878913BEE408003E2C3B473DD92316BECC663B3D1F1684BD6634FCBD901CE1BDC09502BB44CA033E4210163E12A10DBE313900BED049743C301B15BDA636ABBDC054F63BC6DF193E8C35F43DC0A4303B86DC11BDF6E4843DB41307BE07DA0EBE32910B3E4CAE72BDACB8BEBDB45FEEBC1F561ABEB0C7773D8A25153E4446833D5AAC85BDC66763BDF735B3BD0455C4BDF936B7BD3266913D587902BE80A5F8BC2436293DF25EA6BD6AE8073E303489BC186DA3BDD0F5FBBD6468DA3D4416313D2E5A893DE857C83DD0D1C93DF921A9BD701820BDCA72DEBDE033E33D040390BDCAE1073E98F30E3D78149C3D24EC07BDDF6215BE30B1EABD88618C3D085D20BD7AF4813DBC8ECD3D346D043E28574ABDB677B03DA0AAD33CCAF891BDB0E4603C8DEFABBDAD310FBE401DC63BA0C548BD74ED15BDC479103EF42F3B3D905BE43D9C9F113D24243C3D4AF5AF3DE21E8E3D44F2913D5678C53D188084BCB9A0D1BD508FF5BCB858183D575009BE803F223BDE07F3BD80DBA63AEFE68CBDB82CEFBD58FF1ABD010F10BEC05D413D50D56A3C884BCEBC2E73CA3DE1AC98BD325A2EBD56CFF4BDF2348A3DE4BBBB3DF8398F3C460496BDA0228FBBE4D8453D96A30D3EA048B9BCAC1BAF3D6C556E3DB475FB3DA0B7D8BBC0F16CBD60EC143D6A19BA3D4073C03C46FE09BE2013CEBB76ECBEBD2CA4E73D046C113DE2E8ACBD380F623D00A147BBDC6EC53DB4EB3A3DEF82C9BD50F1103EF436303DCCF4AF3D0028ECB93D19AEBD744C7B3D164209BECE62ADBDA003E8BBD5DDFEBD08C2B2BC1897C2BC9AB8CA3D384B5E3DE475B5BD2217003EB20905BE222AA03DA06D453D343E323D0071DBBBA4ADCC3D8CA9E83DD026A53C800DBC3CD36589BDDF62FFBD856C0CBE1264C13D3508EABD84CA44BD888BCE3D603B483D1394B3BD003C11BA0A31B83D342E74BD90647BBC008BC13D9DB2E7BD58E2CFBC3000A4BC17B697BDE005D63C3C109C3D92555ABD90F9D43D685E83BD7056033C828C0BBE003CF73B249B58BD9C3C213D9AE1023EEA6DCEBDAE4439BD1E4A05BDD56BE7BDAC74123E7E4CB73D7A4CF2BD5D220ABE70200EBEF07CE43D1FF811BE60CB0E3C322EA5BD4EABB0BD000AE43BA833EB3CFCCCD0BD9C570E3D48E4E5BDE8AFEBBD109CF13D30F5723D6425873D400561BDA4FD02BD70C55A3C9C99103EA819DC3DDAC7F0BDF01597BCBA11F4BD0C29E63DCAB11CBD14F1693DC04CC3BC9A5C073EB08E75BCECEC30BDC0488F3C4C3C62BD80C472BD7FCDB3BD90B4BFBC08C8DA3DEAB928BDC447D4BD102F39BC62ADF6BDA625C8BD06F1A43D6DBC8EBD8EEE14BE641917BE901D05BDBAAE853D84AA06BE35C790BDDCCF5B3DC01F11BCB032263D1A0C1ABD885F313DA6BB28BD982B143D50E70CBD5415C73DC000DF3B1A4AB9BD86C273BDDA60BB3D927F6BBD2016363C3C5710BDA0BD753D67F7F4BD14241CBDA964A8BD8021623BB02099BCD8E8ED3C8020733DE44B153E9CFC633DE39DAFBDCACB16BE42E1CCBD3D1111BE66C096BD5435DABD48F5DDBD520F863D74405B3D806248BDA08DBCBC8C4E11BD7638E6BD05D5C9BD5E21C5BD1C20EB3DECF209BE66BFCEBD90D3F83DD8D1F3BD7AB843BD8E9B16BE40ACC03B7084E33DA800C6BD009A483C842F7F3DB04BC4BC609D2FBDC44B1CBD64D1573D9C56543D94F8D03D4842D43D3898CE3DC08D6EBCC0CF633DBC7EDDBD76211FBDE85B41BDE2F5A2BD469A0F3E0C19193E44BBFF3D8864EEBC90B62E3D8086623D2089D9BBF44AF3BD989ABC3C6DB8FEBDD889D1BD0A41FBBD4EB80E3E3CABC4BDD893C7BCFA0C20BD0C0FCB3D531716BE4047013C17E68FBD9672A7BDFE760ABD32FD0A3E1C33D13D9416E23D349A753D506C093E9642C4BD5479D53D39D806BE4A6C893DE8BC8B3D2E610ABEF8101CBDA8DFF3BDF02B393C208A7F3D78F735BD063F9D3D9023E7BDCA1FBD3DA0C29B3B4A91013E6D15DBBD4CFEBA3D84B86D3D14A547BD727C6BBDBD8CDFBDA4DAEE3DA2A8CFBD8C9AE7BD50F80DBCBC39493DCD91BFBDC6D8FABD6851453D44EFA1BD1CE5B63D7834A33D3083603DC296063ED4ABD53D4614F7BD2EBDDCBD2862133E24C054BD804E233CEC1A02BE7C47173E28E6043DF2C9E8BD8E58B63D401CA3BB1A253DBD18E8B2BC58D9FDBC68C5693D20A3683C8AACD1BDF850A93D287116BEE803A13C6083EBBB74F1BDBD00288B3D80AEFB3A2506A3BD688B6B3D5EF6A8BD6C25F6BD6035D6BB2A70C8BDBA74C2BD4074063E826BB43D783F50BD928E3CBD5FA816BED23B80BD1E6E01BE58533BBD007909BCE067323C20AF41BDFC8D2E3D806FCBBB36E6173E607B463D10B48CBCDC436EBD8A57D6BDE06DC5BD90F36B3C3CD2083D4823E73D780B1EBD8AFA22BDC4BCEEBD641CE83D4C8B503DE0CE00BE726601BD72EF9D3DCAC78EBD92FF883DB451E0BD918C88BD9684A03DD031483CBE2905BDBCB8F63D0850F93DF826373DBCA2603DCEF4163E6671833DC8099EBC60D7ADBBB25675BD00B783BC6676A03D402FB33C3AAA003E7849BEBCC415E5BC956703BE6131DEBDD01F063CDBA2ADBDC8AD013E304AE33D2427E63D48BD0E3E366EC33D30EE433DB029593C88765D3D20DD5DBD72C100BEECA27B3D28E2E73C725FAC3D84DB29BD20C6D1BC0A130E3E4C20113D68C5473D0CBB0DBD7871D33D161196BDE00CDD3D02D933BD88F0F9BDE65A31BDB823D6BD2A98E3BDC074CE3DF6DF073E79A50FBE807BABBB32980A3ED029CFBCA0A41ABD608C5C3D38CDBE3CCC49643D0462123E807611BB0C45373D68A6003ED44E5ABDACC63BBD301CDF3CC817DD3CBCECF3BDE0DFF33D9B2FA5BD585505BEDA0D79BD2328F7BD807E973B087D483DFC2BD2BD3A3AD9BD5891023E58C8CE3D14850A3EF466B93DC219EEBD007A1D3CEA39A43DEA57023E340D6C3D34C10FBE5A46163E345902BE9C504EBDF014E13CC0A6FE3C520E6FBDE033323D86850B3E602EFBBBD4AC4ABD640C80BD89EFADBD386630BD8084E9BC8AA3143EA430D93D94B8CD3D4041F6BB6ABA11BD9A7946BDE4FA0DBD483B053EB0EE863D2A2716BEEA91CA3D70B213BC00B85A3AC0F93BBB84B9C53D744B193E0889FD3D66540BBE089EAB3D3221C5BDA4342FBDCCF9E1BDFA9900BE0036BF3C2DF39CBD76E7E1BD38B3E13C00CB08BAB8FE5CBD2043B1BCB8BCEA3D04AE37BD90D25A3C0026D63BA80FFFBDE01E8DBCC04C35BB0C63E6BD8C042DBD5CBDC33D1688133E30B3E53D6EDF0ABEAC651D3DE0E37ABD300692BDECA6C73DCC40E8BDA2F2183E6033D43C54F7EABD9003633D007F8FBA5071AE3CAAFCBD3D5E8608BEFE05EFBD1076793DA891223DF26764BD1004733CE0D4163E5827FFBC90F2953D3890AD3D9078153E04C4E6BCC4522A3D9E0F7EBD18F2613D7DAA07BEF832BA3CA0435D3DB4C33FBD208C513CE641973DAE7910BE98142D3D7029193EFBC3AABDA2E817BEFCE14B3D42B7ECBD72AD0C3E4206883D36E8193ED8EA84BC6018EEBB77D683BD1C3AD53D08DFCC3D83E704BEA0C29ABBB4D2363D2A767CBD88B5633D74D2F93D0C0D153D8AEF063E6E141ABDB07A043E3034E7BD349DDDBC8C2ABEBD466DFFBDCC69FABDB4AD07BE3A0BBDBD8CD56F3D5C050DBEECFAAFBD00696DBA70E2DF3DD04608BC64200E3D9C83D53DD46DE33D529EFBBD50840B3D407DBA3B00412A3CC003B4BCA88695BDD4465F3DC885923D80F692BC7451E63D14C2323D16984DBD09E615BEEE1093BD9C26BCBDD0DD9F3DC0E05C3B14DF353D816A03BE1CA2EABD646903BD9CBFBD3D60DFF03CE4F7E23D28F9573DFC04A6BD0811BDBD62136ABD83DFA0BDC452AC3DF05AB13CA8A99D3C4BABE3BD000D613AF835D13D201BC93C42F476BD048A76BD6A44FBBDA2BEAC3DC4CA14BE7077CC3D2010BF3B5E4D0C3E36F505BEE8A693BC30D0193CF47A023E406437BB70278E3CB0A9003E821AB03D43CE06BE986CCDBDA4841C3D06CB0BBE649A8DBDE0270C3CFC8D153D2E98893D1205DBBDAE6AB43D215514BE902F17BE483614BEE83519BE6CF0E83D812214BEE882ABBC20D2DE3DB61FDABD14B9433D0477023D457E10BEA095DB3DBF59CCBD74AEAF3DA3A7FFBD382DCEBD58728E3DCC4C913DF066D8BCF804993CD81ACB3D4CB77C3D70AE803CA4C3403D7ED218BE06B2093EB8871ABD4CCC2B3DBCD147BD1A54F7BDD0E26DBC004E1EBAAE773FBD1E1380BD047F66BD48C5B1BCDEBECDBD482F903DB8999C3D64EE1CBDAA49183E784137BDD4509BBDE8FEC73D005C1EBAC062E43CBC47AA3D5C9FD13D7CDB3D3D907E533CDAA6A4BD6FFC94BDC60005BD149CF8BCE5959BBD74A8F9BD1438C83D481CBD3DBCE2F7BD8381B2BD9915BFBD30F0B03C0C1CAFBDD07A7DBC34EA543D9805223D068579BD0421EFBD707C9DBCECC5F3BC78D0EABCDA8EA93D0CFE3F3D1AF9CFBD78958D3DC41C143E28DAEC3D30BCEA3CB0FC603D78F4F0BCE41D0F3DC292CFBD30D2D83D96FA10BEB887F63D9B8EBABD001DB2BB0C1358BD94E2F5BD512F97BD4090B0BCC82DBF3CB8CE2F3DAEC2D1BDA0B6DD3DD2CAC7BDDC94923DF65BB43DE43FDFBD562906BEEA5ABABD62E7E1BDB01385BC6858833C3C22103EE049EBBB6E1A4DBD944CB43D6636A93D645A9D3D7AC0053E700CE03CEC19623D1A8DA73DB8EB0A3E40050CBEC2AC0C3E446AD1BD14E6D6BD682129BD5839CC3D28BDCC3D2CBEDF3D1780DDBD4CB2B83D1C080F3E80920E3BB47422BDD6ADC73D15A310BEA2446DBD4453953D5CA3073EA6BAFFBDC41E30BD259916BED40F083D7084E4BCBE2ED6BD00829F3BDEBDE8BD4041F2BB337508BE0677E6BD1C7011BEA0FC0EBE3EA95ABD986712BD680250BDFEB905BE30FAF2BD1617983D249D0DBEF0DEE03D84DA1FBD622596BD2E999E3D48759EBD246A3BBDEEE9E1BD3E0185BDBCB1DF3D941B0D3EB07252BD08A4D63DBC47013EBC9044BD6369AFBD442309BD3E9B053E200466BCA491DFBCC6C3E3BD10122DBC94369BBD01000CBE4227A33DC82EB93DFC87F0BDF833C83C20D57E3C0CCF87BD2080A63C9EC072BD78BC53BDE5F4EABDD2B3AE3D468C82BDD08802BCF85B543D60873CBC28C0EA3D2022293D8015AFBB40AE823BBA3B163E4DBC9BBDB6A7FFBDC0E11B3D17C311BE80BC8E3D1ED3A53DBB9782BD7846B03D97A918BEF045AFBD175F05BEDB9B0CBEB21C12BECEE650BDEC74113D88B4CD3CD258A73DC63BAC3D1C1F563DFCF0B53DD8245CBD6616BA3D7071E9BC4495F63D7C21123E5628B0BD70BECC3CBDB1F7BDE7C617BE839FA8BD6CD4BA3D10E0E83D14EEB3BDEC29CD3DDA64043E0A27AA3D88CAAEBCD0D9E33D94A27D3D613CF9BD06BE6BBD5032ACBC1810003EF02CCE3D886DC83C9D11D8BD4E92BB3D42B6193E044956BD2809FDBC80CBF83B9BFA10BE3F33E9BD2083603C4CB3DE3DC2B99D3D48B0753D0C28DC3DF42566BD62A5CA3DE63F34BDBC20023E34DE8ABD0C76DFBC228332BDFC7E1EBDD436263DF0575BBCE86D3E3DACBB613D9A5CA1BDF47ED0BDE0DDF73DB7A890BD7EA28EBD9CAE1F3D08B3BC3C48FB32BDC508AFBD8C9458BD0282AA3D3CF00DBE3C07E3BDD5640DBE369B0EBEB0B7893DC48BED3DAF7B92BD0E51B63D8C9EF13DD08B7E3C28D0BA3C587AC13D06C19A3D4C7983BD989D91BC14C5D33D108183BD4092D13DF0FA5BBC8A0BC3BD201C0A3E9EF1953D45CB8CBD5487FABD78BEA73D9EF4043EC45F173E3841843D9CBE013D58CFCEBC1416CEBD6036643C12D0CBBD105B3D3C6FC2D9BDAE73A8BD0204043E9E659C3D84AC773DC6367EBD7C57CF3D586EC33D120300BEF4FECA3D74C131BD02F601BED8A2143E6839133DB8D70DBE30A18ABD00E234BBB8AFE1BD28D2393DDC94E8BD6CE20EBE404D1FBB822527BD10689A3D3804ABBD78AAA13D40D8E2BBE43D733D78E08D3DE8B8D73D0CF8FFBD70C2E43D60AFDABB16C556BDAEA0163E82A20A3EC03CAE3C92BD64BDC842873C5C9C93BD80DF7ABD04D5E0BC682C033DAE22B8BD9802153EF0293C3D98248D3D800437BB74B7E7BDA93A17BE80E8D1BB80A75DBC385FA4BC3CB5813DAA7DE0BDA45CFA3D6033B73DEAA1083EA6E69F3D78CE953DAFE0F8BD542CC33DDBBBD9BDDC0059BD30CFEA3C00D012BC77CE9BBDB0A9653CC9FC08BE34442B3D62FBBCBD20154BBCB4D0033D18FB053E3E32BE3DE0F30D3E585C25BDDC39DEBDF64317BEAEB203BE38ABDC3DA024A93B388FA1BC7ED5B6BD6402DCBCC05AFA3B601EB4BDB3F290BD24CC323DECE0F6BD0860FABC3CE26E3D4ECA0FBE50F401BC480392BCCA35CBBD9E31DBBD2EB8ECBDC8DBF33D5AD1163E0A0D78BD8C09B93D860C58BD541C053D60038BBC32DB8C3DD6EDB63DD0929F3D574896BD63DEA3BD58DFF43D4C3641BDCE4AFDBD483BB6BC806E603DA6AA013E03D6D9BD88DB913C1C84E1BC2690003E50D10ABCDC02C6BD7C1FA9BD1A47D1BD5B2FE4BD3C59653DB21982BDE872673DC080B23BE0E3DA3CC98413BE003E8AB978ACE8BD8849A33C38ECC2BC02FDF8BD780DB0BC40296ABBA07150BC261CD7BD9451173D64239A3D0FA7C9BD19DF00BEE2F4EFBD083414BE5411BA3D28CECDBC921C3EBD1493483DA8D5D53CA8CFAFBCA0D1103E0AFEC73D1872CDBD508AE53DB45AD43D58E30E3EF6C462BDB4D9F73DE8A8BD3CA85FDBBCC49EDDBD780205BD38A4E23D8C86B53DB8F7FA3DD4CC223DC0D9ED3DC668BFBD78A99CBC90A584BCA076333C808928BC001F133B52B5183EF88980BD20C3EE3CA0C1C5BC3CBE79BD140C273D8AEF2FBD08231B3DF457DDBDC06912BCBC50B7BD100DD53DA41F06BE9CFE033DA2CB52BDB098473CF792AABD782D733DECDBE23D1480423D3C3015BEA53784BD80EDA6BC588E31BDE6F522BD583AB2BC3043853C741A043E60723F3D74FD7D3D0092A439961707BE16D803BE766A883D1EEFE6BDE65DA83DA026BA3C106A1D3CCC370C3DE676053E4DCC93BD9390ACBD42D09CBD08D9C73D704951BD68045B3DE051073CE4480FBD9873A43D000AA2BA008CED3D92E39BBD1673B6BD30D24DBC408BE0BDB0C831BC54E12D3DA9A5DABD7AC4073E6A44E9BD2845213D020013BE01C3BFBD5A989D3D5812813D944CA83DE0AEA63C407489BCD9179EBDB8F2EC3C84E2133EF2BE46BD98B4823C70CD2C3D9CEE973D4AE9173EF4EEB9BD0048D739784FE83CE0CAD8BB7C8468BDC411FCBC0C041C3D00D2FD3A0A3E013ED843C1BDE9DDF6BD5CAC7E3DEE800B3E1C9546BD20AC043DD01B6D3DD4E012BE7914FCBD7637143E401EB83D186BFB3D1F0BC9BD74DAD23D9E8905BDE40D41BD00AA013E4474693D7475C6BDD4880B3E653BA0BD7078C9BD1CBCE93DB15BCFBDE024473C26CFB23D48EBAFBDF6F1BEBD9CF6FD3D342566BDB82AF63DCE820A3EE6E4C63D33AF91BD6F9DA5BD5844D8BC5823993C40B6723C606C4FBC2866ECBC24C271BDEEBC9F3DB45CCC3D302A72BC469856BD13E016BE5462983D881A0B3D4EE5123E1C4A8CBD90DDC7BCF077A03C400BBFBDE4FA02BE788DEC3DF010323D7E1270BD635B01BEC0E9F4BB78F1973DE09BC6BB2C350B3DA44FF1BD00264B3BD404E53D2060173DF92D19BED748A4BD4568C0BD6CD7DE3D03A400BE8E2BAE3D8D8CFCBD48E1AA3D11FF17BE607DDB3D4A9DB43D71149FBD38226D3D64C3153E60002FBC5C0036BD0615E1BD207C0D3EAECF08BE204575BCCE28163EB06970BC64CAD83D32170CBD6A70A53DC0B8973BC0B84B3CEC30F53D7C52793D104D5DBCEECFACBD42D38B3D2057C53CD0AED13DD080AE3C2060A53B0EE1BB3D8EF3CDBD78F9A5BD5E0459BD4445E9BC7CE5743D322275BDC4B4B93DDD688BBD5873C3BC12C9F8BDEC17BABD8C77F73D1A74143EBCA0803D40BCB23DA09320BC64185F3D30D6723C183E99BDDED6183E24CB0F3E5601BD3D00415E3D20A1CBBC4E1514BED05D023E2060633D09ACF0BDE41A203DE030053EEAD1C33DA0359D3DECE1F73D7CC7163D60C318BC332EA7BDE0DF8F3D906BB33C1E079FBD3D7DE4BDC65A973D7872143ECA55CDBDFE620A3E5493FA3D5AACAB3D6C4F94BD82C91BBD7A2E0A3EF035403D53A1FFBDDAEEA03DD2B9A03D3632CEBDC03249BCFE580ABE4E27BC3D7BA512BE329AA63D369211BEB9DFA2BD00FF183E326FE3BDDB67D3BD16AFAB3DC026A63D8FCB86BD388F813CE2D202BEA0FB46BD660F36BD7CCD6F3DE5B7D7BD24D5C33D9299AFBD3614183E468137BD0001AE3BE1B997BD4AE928BDA6174FBD7D3409BEE09BD63BFC310FBE0E05133E1A8CA93D5A0FEBBD4EAC803DC62E5BBD794C0FBE702BCDBC00ACC3BDD602FDBD815693BD380001BED172D0BDA49F28BD92BC02BEB0B3FBBD2A7A97BD710C08BEF02F053C701CCCBCAC83FB3D6CFE033D508A0F3DCF211ABE481972BD90D7B0BCAA850E3ED0FE7F3DA082C5BD963C51BDA037173C65090FBE475FD1BD64DDAE3D687BF83D"> {alignment = 64 : i64}
  memref.global "private" constant @__constant_1x8x4xf32 : memref<1x8x4xf32> = dense<[[[0.698632538, -0.34189117, -0.422249705, 0.0148819089], [-0.238211125, -0.0309978127, 0.41851598, 0.293587506], [-0.642848312, -0.359199047, -0.678803802, 0.03303653], [-0.698414564, -0.502943397, -0.148357093, 0.129342258], [-0.141768157, -0.148408175, -0.208009869, -2.968030e-01], [6.094020e-01, 8.139920e-02, -0.671867967, -0.303727537], [-0.591796041, -0.388902962, -0.604529262, -0.0494864583], [-0.569168925, 0.389392674, -0.58365041, -0.640111327]]]> {alignment = 64 : i64}
  memref.global "private" constant @__constant_1x4x2xf32 : memref<1x4x2xf32> = dense<[[[-0.980995178, -0.838457584], [0.45938921, 0.0730445384], [-0.741803885, 0.636193752], [0.272650242, 0.155854464]]]> {alignment = 64 : i64}
  func.func @main(%arg0: memref<4x32x32x1xf32>, %arg1: memref<4x2xf32>) attributes {tf.entry_function = {control_outputs = "", inputs = "x1", outputs = "Identity"}} {
    %cst = arith.constant 0.000000e+00 : f32
    %cst_0 = arith.constant 1.000000e+00 : f32
    %cst_1 = arith.constant -3.40282347E+38 : f32
    %cst_2 = arith.constant 3.40282347E+38 : f32
    %0 = memref.get_global @__constant_1x4x2xf32 : memref<1x4x2xf32>
    %1 = memref.get_global @__constant_1x8x4xf32 : memref<1x8x4xf32>
    %2 = memref.get_global @__constant_1x256x8xf32 : memref<1x256x8xf32>
    %3 = memref.get_global @__constant_1xf32 : memref<1xf32>
    %4 = memref.get_global @__constant_1x5x5x1xf32 : memref<1x5x5x1xf32>
    %alloc = memref.alloc() {alignment = 64 : i64} : memref<4x35x35x1xf32>
    linalg.fill ins(%cst : f32) outs(%alloc : memref<4x35x35x1xf32>)
    %subview = memref.subview %alloc[0, 1, 1, 0] [4, 32, 32, 1] [1, 1, 1, 1] : memref<4x35x35x1xf32> to memref<4x32x32x1xf32, strided<[1225, 35, 1, 1], offset: 36>>
    memref.copy %arg0, %subview : memref<4x32x32x1xf32> to memref<4x32x32x1xf32, strided<[1225, 35, 1, 1], offset: 36>>
    %alloc_3 = memref.alloc() {alignment = 64 : i64} : memref<4x16x16x1xf32>
    linalg.generic {indexing_maps = [#map, #map1], iterator_types = ["parallel", "parallel", "parallel", "parallel"]} ins(%3 : memref<1xf32>) outs(%alloc_3 : memref<4x16x16x1xf32>) {
    ^bb0(%in: f32, %out: f32):
      linalg.yield %in : f32
    }
    linalg.conv_2d_nhwc_fhwc {dilations = dense<1> : tensor<2xi64>, strides = dense<2> : tensor<2xi64>} ins(%alloc, %4 : memref<4x35x35x1xf32>, memref<1x5x5x1xf32>) outs(%alloc_3 : memref<4x16x16x1xf32>)
    %alloc_4 = memref.alloc() {alignment = 64 : i64} : memref<4x16x16x1xf32>
    linalg.generic {indexing_maps = [#map2, #map1], iterator_types = ["parallel", "parallel", "parallel", "parallel"]} ins(%alloc_3 : memref<4x16x16x1xf32>) outs(%alloc_4 : memref<4x16x16x1xf32>) {
    ^bb0(%in: f32, %out: f32):
      %5 = arith.minimumf %in, %cst_2 : f32
      %6 = arith.maximumf %5, %cst : f32
      linalg.yield %6 : f32
    }
    %collapse_shape = memref.collapse_shape %alloc_4 [[0], [1, 2, 3]] : memref<4x16x16x1xf32> into memref<4x256xf32>
    %expand_shape = memref.expand_shape %collapse_shape [[0, 1], [2]] output_shape [1, 4, 256] : memref<4x256xf32> into memref<1x4x256xf32>
    %alloc_5 = memref.alloc() {alignment = 64 : i64} : memref<1x4x8xf32>
    linalg.fill ins(%cst : f32) outs(%alloc_5 : memref<1x4x8xf32>)
    linalg.batch_matmul ins(%expand_shape, %2 : memref<1x4x256xf32>, memref<1x256x8xf32>) outs(%alloc_5 : memref<1x4x8xf32>)
    %collapse_shape_6 = memref.collapse_shape %alloc_5 [[0, 1], [2]] : memref<1x4x8xf32> into memref<4x8xf32>
    %alloc_7 = memref.alloc() {alignment = 64 : i64} : memref<4x8xf32>
    linalg.generic {indexing_maps = [#map3, #map3], iterator_types = ["parallel", "parallel"]} ins(%collapse_shape_6 : memref<4x8xf32>) outs(%alloc_7 : memref<4x8xf32>) {
    ^bb0(%in: f32, %out: f32):
      %5 = arith.minimumf %in, %cst_2 : f32
      %6 = arith.maximumf %5, %cst : f32
      linalg.yield %6 : f32
    }
    %expand_shape_8 = memref.expand_shape %alloc_7 [[0, 1], [2]] output_shape [1, 4, 8] : memref<4x8xf32> into memref<1x4x8xf32>
    %alloc_9 = memref.alloc() {alignment = 64 : i64} : memref<1x4x4xf32>
    linalg.fill ins(%cst : f32) outs(%alloc_9 : memref<1x4x4xf32>)
    soda.launch_func  @main_kernel::@main_kernel args(%expand_shape_8 : memref<1x4x8xf32>, %1 : memref<1x8x4xf32>, %alloc_9 : memref<1x4x4xf32>)
    %collapse_shape_10 = memref.collapse_shape %alloc_9 [[0, 1], [2]] : memref<1x4x4xf32> into memref<4x4xf32>
    %alloc_11 = memref.alloc() {alignment = 64 : i64} : memref<4x4xf32>
    linalg.generic {indexing_maps = [#map3, #map3], iterator_types = ["parallel", "parallel"]} ins(%collapse_shape_10 : memref<4x4xf32>) outs(%alloc_11 : memref<4x4xf32>) {
    ^bb0(%in: f32, %out: f32):
      %5 = arith.minimumf %in, %cst_2 : f32
      %6 = arith.maximumf %5, %cst : f32
      linalg.yield %6 : f32
    }
    %expand_shape_12 = memref.expand_shape %alloc_11 [[0, 1], [2]] output_shape [1, 4, 4] : memref<4x4xf32> into memref<1x4x4xf32>
    %alloc_13 = memref.alloc() {alignment = 64 : i64} : memref<1x4x2xf32>
    linalg.fill ins(%cst : f32) outs(%alloc_13 : memref<1x4x2xf32>)
    linalg.batch_matmul ins(%expand_shape_12, %0 : memref<1x4x4xf32>, memref<1x4x2xf32>) outs(%alloc_13 : memref<1x4x2xf32>)
    %collapse_shape_14 = memref.collapse_shape %alloc_13 [[0, 1], [2]] : memref<1x4x2xf32> into memref<4x2xf32>
    %alloc_15 = memref.alloc() {alignment = 64 : i64} : memref<4xf32>
    linalg.fill ins(%cst_1 : f32) outs(%alloc_15 : memref<4xf32>)
    linalg.reduce ins(%collapse_shape_14 : memref<4x2xf32>) outs(%alloc_15 : memref<4xf32>) dimensions = [1] 
      (%in: f32, %init: f32) {
        %5 = arith.maximumf %in, %init : f32
        linalg.yield %5 : f32
      }
    %expand_shape_16 = memref.expand_shape %alloc_15 [[0, 1]] output_shape [4, 1] : memref<4xf32> into memref<4x1xf32>
    %alloc_17 = memref.alloc() {alignment = 64 : i64} : memref<4x2xf32>
    linalg.generic {indexing_maps = [#map3, #map4, #map3], iterator_types = ["parallel", "parallel"]} ins(%collapse_shape_14, %expand_shape_16 : memref<4x2xf32>, memref<4x1xf32>) outs(%alloc_17 : memref<4x2xf32>) {
    ^bb0(%in: f32, %in_23: f32, %out: f32):
      %5 = arith.subf %in, %in_23 : f32
      linalg.yield %5 : f32
    }
    %alloc_18 = memref.alloc() {alignment = 64 : i64} : memref<4x2xf32>
    linalg.generic {indexing_maps = [#map3, #map3], iterator_types = ["parallel", "parallel"]} ins(%alloc_17 : memref<4x2xf32>) outs(%alloc_18 : memref<4x2xf32>) {
    ^bb0(%in: f32, %out: f32):
      %5 = math.exp %in : f32
      linalg.yield %5 : f32
    }
    %alloc_19 = memref.alloc() {alignment = 64 : i64} : memref<4xf32>
    linalg.fill ins(%cst : f32) outs(%alloc_19 : memref<4xf32>)
    linalg.reduce ins(%alloc_18 : memref<4x2xf32>) outs(%alloc_19 : memref<4xf32>) dimensions = [1] 
      (%in: f32, %init: f32) {
        %5 = arith.addf %in, %init : f32
        linalg.yield %5 : f32
      }
    %expand_shape_20 = memref.expand_shape %alloc_19 [[0, 1]] output_shape [4, 1] : memref<4xf32> into memref<4x1xf32>
    %alloc_21 = memref.alloc() {alignment = 64 : i64} : memref<4x1xf32>
    linalg.generic {indexing_maps = [#map4, #map3], iterator_types = ["parallel", "parallel"]} ins(%expand_shape_20 : memref<4x1xf32>) outs(%alloc_21 : memref<4x1xf32>) {
    ^bb0(%in: f32, %out: f32):
      %5 = arith.divf %cst_0, %in : f32
      linalg.yield %5 : f32
    }
    %alloc_22 = memref.alloc() {alignment = 64 : i64} : memref<4x2xf32>
    linalg.generic {indexing_maps = [#map3, #map4, #map3], iterator_types = ["parallel", "parallel"]} ins(%alloc_18, %alloc_21 : memref<4x2xf32>, memref<4x1xf32>) outs(%alloc_22 : memref<4x2xf32>) {
    ^bb0(%in: f32, %in_23: f32, %out: f32):
      %5 = arith.mulf %in, %in_23 : f32
      linalg.yield %5 : f32
    }
    memref.copy %alloc_22, %arg1 : memref<4x2xf32> to memref<4x2xf32>
    return
  }
  soda.module @main_kernel {
    soda.func @main_kernel(%arg0: memref<1x4x8xf32>, %arg1: memref<1x8x4xf32>, %arg2: memref<1x4x4xf32>) kernel {
      cf.br ^bb1
    ^bb1:  // pred: ^bb0
      linalg.batch_matmul ins(%arg0, %arg1 : memref<1x4x8xf32>, memref<1x8x4xf32>) outs(%arg2 : memref<1x4x4xf32>)
      soda.return
    }
  }
}


// -----// IR Dump After SodaKernelGeneration (soda-generate-bambu-accelcode) //----- //
module attributes {soda.bambu.container_module, soda.container_module, tf.versions = {bad_consumers = [], min_consumer = 0 : i32, producer = 1882 : i32}} {
  func.func @main_kernel(%arg0: memref<1x4x8xf32> {llvm.noalias}, %arg1: memref<1x8x4xf32> {llvm.noalias}, %arg2: memref<1x4x4xf32> {llvm.noalias}) {
    cf.br ^bb1
  ^bb1:  // pred: ^bb0
    linalg.batch_matmul ins(%arg0, %arg1 : memref<1x4x8xf32>, memref<1x8x4xf32>) outs(%arg2 : memref<1x4x4xf32>)
    return
  }
}


// -----// IR Dump After ConvertLinalgToAffineLoopsPass (convert-linalg-to-affine-loops) //----- //
module attributes {soda.bambu.container_module, soda.container_module, tf.versions = {bad_consumers = [], min_consumer = 0 : i32, producer = 1882 : i32}} {
  func.func @main_kernel(%arg0: memref<1x4x8xf32> {llvm.noalias}, %arg1: memref<1x8x4xf32> {llvm.noalias}, %arg2: memref<1x4x4xf32> {llvm.noalias}) {
    cf.br ^bb1
  ^bb1:  // pred: ^bb0
    affine.for %arg3 = 0 to 1 {
      affine.for %arg4 = 0 to 4 {
        affine.for %arg5 = 0 to 4 {
          affine.for %arg6 = 0 to 8 {
            %0 = affine.load %arg0[%arg3, %arg4, %arg6] : memref<1x4x8xf32>
            %1 = affine.load %arg1[%arg3, %arg6, %arg5] : memref<1x8x4xf32>
            %2 = affine.load %arg2[%arg3, %arg4, %arg5] : memref<1x4x4xf32>
            %3 = arith.mulf %0, %1 : f32
            %4 = arith.addf %2, %3 : f32
            affine.store %4, %arg2[%arg3, %arg4, %arg5] : memref<1x4x4xf32>
          }
        }
      }
    }
    return
  }
}


// -----// IR Dump After ExpandStridedMetadata (expand-strided-metadata) //----- //
module attributes {soda.bambu.container_module, soda.container_module, tf.versions = {bad_consumers = [], min_consumer = 0 : i32, producer = 1882 : i32}} {
  func.func @main_kernel(%arg0: memref<1x4x8xf32> {llvm.noalias}, %arg1: memref<1x8x4xf32> {llvm.noalias}, %arg2: memref<1x4x4xf32> {llvm.noalias}) {
    cf.br ^bb1
  ^bb1:  // pred: ^bb0
    affine.for %arg3 = 0 to 1 {
      affine.for %arg4 = 0 to 4 {
        affine.for %arg5 = 0 to 4 {
          affine.for %arg6 = 0 to 8 {
            %0 = affine.load %arg0[%arg3, %arg4, %arg6] : memref<1x4x8xf32>
            %1 = affine.load %arg1[%arg3, %arg6, %arg5] : memref<1x8x4xf32>
            %2 = affine.load %arg2[%arg3, %arg4, %arg5] : memref<1x4x4xf32>
            %3 = arith.mulf %0, %1 : f32
            %4 = arith.addf %2, %3 : f32
            affine.store %4, %arg2[%arg3, %arg4, %arg5] : memref<1x4x4xf32>
          }
        }
      }
    }
    return
  }
}


// -----// IR Dump After AffineDataCopyGeneration (affine-data-copy-generate) //----- //
func.func @main_kernel(%arg0: memref<1x4x8xf32> {llvm.noalias}, %arg1: memref<1x8x4xf32> {llvm.noalias}, %arg2: memref<1x4x4xf32> {llvm.noalias}) {
  %c0 = arith.constant 0 : index
  %c0_0 = arith.constant 0 : index
  %c0_1 = arith.constant 0 : index
  %c0_2 = arith.constant 0 : index
  %c16 = arith.constant 16 : index
  %c0_3 = arith.constant 0 : index
  %c16_4 = arith.constant 16 : index
  %c0_5 = arith.constant 0 : index
  %c32 = arith.constant 32 : index
  %c0_6 = arith.constant 0 : index
  %c32_7 = arith.constant 32 : index
  %c0_8 = arith.constant 0 : index
  %c0_9 = arith.constant 0 : index
  cf.br ^bb1
^bb1:  // pred: ^bb0
  %alloc = memref.alloc() : memref<1x4x8xf32>
  affine.for %arg3 = 0 to 4 {
    affine.for %arg4 = 0 to 8 {
      %0 = affine.load %arg0[0, %arg3, %arg4] : memref<1x4x8xf32>
      affine.store %0, %alloc[0, %arg3, %arg4] : memref<1x4x8xf32>
    }
  }
  %alloc_10 = memref.alloc() : memref<1x8x4xf32>
  affine.for %arg3 = 0 to 8 {
    affine.for %arg4 = 0 to 4 {
      %0 = affine.load %arg1[0, %arg3, %arg4] : memref<1x8x4xf32>
      affine.store %0, %alloc_10[0, %arg3, %arg4] : memref<1x8x4xf32>
    }
  }
  %alloc_11 = memref.alloc() : memref<1x4x4xf32>
  affine.for %arg3 = 0 to 4 {
    affine.for %arg4 = 0 to 4 {
      %0 = affine.load %arg2[0, %arg3, %arg4] : memref<1x4x4xf32>
      affine.store %0, %alloc_11[0, %arg3, %arg4] : memref<1x4x4xf32>
    }
  }
  affine.for %arg3 = 0 to 1 {
    affine.for %arg4 = 0 to 4 {
      affine.for %arg5 = 0 to 4 {
        affine.for %arg6 = 0 to 8 {
          %0 = affine.load %alloc[%arg3, %arg4, %arg6] : memref<1x4x8xf32>
          %1 = affine.load %alloc_10[%arg3, %arg6, %arg5] : memref<1x8x4xf32>
          %2 = affine.load %alloc_11[%arg3, %arg4, %arg5] : memref<1x4x4xf32>
          %3 = arith.mulf %0, %1 : f32
          %4 = arith.addf %2, %3 : f32
          affine.store %4, %alloc_11[%arg3, %arg4, %arg5] : memref<1x4x4xf32>
        }
      }
    }
  }
  affine.for %arg3 = 0 to 4 {
    affine.for %arg4 = 0 to 4 {
      %0 = affine.load %alloc_11[0, %arg3, %arg4] : memref<1x4x4xf32>
      affine.store %0, %arg2[0, %arg3, %arg4] : memref<1x4x4xf32>
    }
  }
  memref.dealloc %alloc_11 : memref<1x4x4xf32>
  memref.dealloc %alloc_10 : memref<1x8x4xf32>
  memref.dealloc %alloc : memref<1x4x8xf32>
  return
}

// -----// IR Dump After EraseMemrefDealloc (erase-buffer-deallocation) //----- //
module attributes {soda.bambu.container_module, soda.container_module, tf.versions = {bad_consumers = [], min_consumer = 0 : i32, producer = 1882 : i32}} {
  func.func @main_kernel(%arg0: memref<1x4x8xf32> {llvm.noalias}, %arg1: memref<1x8x4xf32> {llvm.noalias}, %arg2: memref<1x4x4xf32> {llvm.noalias}) {
    cf.br ^bb1
  ^bb1:  // pred: ^bb0
    %alloc = memref.alloc() : memref<1x4x8xf32>
    affine.for %arg3 = 0 to 4 {
      affine.for %arg4 = 0 to 8 {
        %0 = affine.load %arg0[0, %arg3, %arg4] : memref<1x4x8xf32>
        affine.store %0, %alloc[0, %arg3, %arg4] : memref<1x4x8xf32>
      }
    }
    %alloc_0 = memref.alloc() : memref<1x8x4xf32>
    affine.for %arg3 = 0 to 8 {
      affine.for %arg4 = 0 to 4 {
        %0 = affine.load %arg1[0, %arg3, %arg4] : memref<1x8x4xf32>
        affine.store %0, %alloc_0[0, %arg3, %arg4] : memref<1x8x4xf32>
      }
    }
    %alloc_1 = memref.alloc() : memref<1x4x4xf32>
    affine.for %arg3 = 0 to 4 {
      affine.for %arg4 = 0 to 4 {
        %0 = affine.load %arg2[0, %arg3, %arg4] : memref<1x4x4xf32>
        affine.store %0, %alloc_1[0, %arg3, %arg4] : memref<1x4x4xf32>
      }
    }
    affine.for %arg3 = 0 to 1 {
      affine.for %arg4 = 0 to 4 {
        affine.for %arg5 = 0 to 4 {
          affine.for %arg6 = 0 to 8 {
            %0 = affine.load %alloc[%arg3, %arg4, %arg6] : memref<1x4x8xf32>
            %1 = affine.load %alloc_0[%arg3, %arg6, %arg5] : memref<1x8x4xf32>
            %2 = affine.load %alloc_1[%arg3, %arg4, %arg5] : memref<1x4x4xf32>
            %3 = arith.mulf %0, %1 : f32
            %4 = arith.addf %2, %3 : f32
            affine.store %4, %alloc_1[%arg3, %arg4, %arg5] : memref<1x4x4xf32>
          }
        }
      }
    }
    affine.for %arg3 = 0 to 4 {
      affine.for %arg4 = 0 to 4 {
        %0 = affine.load %alloc_1[0, %arg3, %arg4] : memref<1x4x4xf32>
        affine.store %0, %arg2[0, %arg3, %arg4] : memref<1x4x4xf32>
      }
    }
    return
  }
}


// -----// IR Dump After PromoteBuffersToStack (promote-buffers-to-stack) //----- //
func.func @main_kernel(%arg0: memref<1x4x8xf32> {llvm.noalias}, %arg1: memref<1x8x4xf32> {llvm.noalias}, %arg2: memref<1x4x4xf32> {llvm.noalias}) {
  cf.br ^bb1
^bb1:  // pred: ^bb0
  %alloca = memref.alloca() : memref<1x4x8xf32>
  affine.for %arg3 = 0 to 4 {
    affine.for %arg4 = 0 to 8 {
      %0 = affine.load %arg0[0, %arg3, %arg4] : memref<1x4x8xf32>
      affine.store %0, %alloca[0, %arg3, %arg4] : memref<1x4x8xf32>
    }
  }
  %alloca_0 = memref.alloca() : memref<1x8x4xf32>
  affine.for %arg3 = 0 to 8 {
    affine.for %arg4 = 0 to 4 {
      %0 = affine.load %arg1[0, %arg3, %arg4] : memref<1x8x4xf32>
      affine.store %0, %alloca_0[0, %arg3, %arg4] : memref<1x8x4xf32>
    }
  }
  %alloca_1 = memref.alloca() : memref<1x4x4xf32>
  affine.for %arg3 = 0 to 4 {
    affine.for %arg4 = 0 to 4 {
      %0 = affine.load %arg2[0, %arg3, %arg4] : memref<1x4x4xf32>
      affine.store %0, %alloca_1[0, %arg3, %arg4] : memref<1x4x4xf32>
    }
  }
  affine.for %arg3 = 0 to 1 {
    affine.for %arg4 = 0 to 4 {
      affine.for %arg5 = 0 to 4 {
        affine.for %arg6 = 0 to 8 {
          %0 = affine.load %alloca[%arg3, %arg4, %arg6] : memref<1x4x8xf32>
          %1 = affine.load %alloca_0[%arg3, %arg6, %arg5] : memref<1x8x4xf32>
          %2 = affine.load %alloca_1[%arg3, %arg4, %arg5] : memref<1x4x4xf32>
          %3 = arith.mulf %0, %1 : f32
          %4 = arith.addf %2, %3 : f32
          affine.store %4, %alloca_1[%arg3, %arg4, %arg5] : memref<1x4x4xf32>
        }
      }
    }
  }
  affine.for %arg3 = 0 to 4 {
    affine.for %arg4 = 0 to 4 {
      %0 = affine.load %alloca_1[0, %arg3, %arg4] : memref<1x4x4xf32>
      affine.store %0, %arg2[0, %arg3, %arg4] : memref<1x4x4xf32>
    }
  }
  return
}

// -----// IR Dump After AffineLoopUnroll (affine-loop-unroll) //----- //
func.func @main_kernel(%arg0: memref<1x4x8xf32> {llvm.noalias}, %arg1: memref<1x8x4xf32> {llvm.noalias}, %arg2: memref<1x4x4xf32> {llvm.noalias}) {
  %c0 = arith.constant 0 : index
  %c0_0 = arith.constant 0 : index
  %c0_1 = arith.constant 0 : index
  %c0_2 = arith.constant 0 : index
  %c0_3 = arith.constant 0 : index
  cf.br ^bb1
^bb1:  // pred: ^bb0
  %alloca = memref.alloca() : memref<1x4x8xf32>
  affine.for %arg3 = 0 to 4 {
    %0 = affine.load %arg0[0, %arg3, %c0_3] : memref<1x4x8xf32>
    affine.store %0, %alloca[0, %arg3, %c0_3] : memref<1x4x8xf32>
    %1 = affine.apply affine_map<(d0) -> (d0 + 1)>(%c0_3)
    %2 = affine.load %arg0[0, %arg3, %1] : memref<1x4x8xf32>
    affine.store %2, %alloca[0, %arg3, %1] : memref<1x4x8xf32>
    %3 = affine.apply affine_map<(d0) -> (d0 + 2)>(%c0_3)
    %4 = affine.load %arg0[0, %arg3, %3] : memref<1x4x8xf32>
    affine.store %4, %alloca[0, %arg3, %3] : memref<1x4x8xf32>
    %5 = affine.apply affine_map<(d0) -> (d0 + 3)>(%c0_3)
    %6 = affine.load %arg0[0, %arg3, %5] : memref<1x4x8xf32>
    affine.store %6, %alloca[0, %arg3, %5] : memref<1x4x8xf32>
    %7 = affine.apply affine_map<(d0) -> (d0 + 4)>(%c0_3)
    %8 = affine.load %arg0[0, %arg3, %7] : memref<1x4x8xf32>
    affine.store %8, %alloca[0, %arg3, %7] : memref<1x4x8xf32>
    %9 = affine.apply affine_map<(d0) -> (d0 + 5)>(%c0_3)
    %10 = affine.load %arg0[0, %arg3, %9] : memref<1x4x8xf32>
    affine.store %10, %alloca[0, %arg3, %9] : memref<1x4x8xf32>
    %11 = affine.apply affine_map<(d0) -> (d0 + 6)>(%c0_3)
    %12 = affine.load %arg0[0, %arg3, %11] : memref<1x4x8xf32>
    affine.store %12, %alloca[0, %arg3, %11] : memref<1x4x8xf32>
    %13 = affine.apply affine_map<(d0) -> (d0 + 7)>(%c0_3)
    %14 = affine.load %arg0[0, %arg3, %13] : memref<1x4x8xf32>
    affine.store %14, %alloca[0, %arg3, %13] : memref<1x4x8xf32>
  }
  %alloca_4 = memref.alloca() : memref<1x8x4xf32>
  affine.for %arg3 = 0 to 8 {
    %0 = affine.load %arg1[0, %arg3, %c0_2] : memref<1x8x4xf32>
    affine.store %0, %alloca_4[0, %arg3, %c0_2] : memref<1x8x4xf32>
    %1 = affine.apply affine_map<(d0) -> (d0 + 1)>(%c0_2)
    %2 = affine.load %arg1[0, %arg3, %1] : memref<1x8x4xf32>
    affine.store %2, %alloca_4[0, %arg3, %1] : memref<1x8x4xf32>
    %3 = affine.apply affine_map<(d0) -> (d0 + 2)>(%c0_2)
    %4 = affine.load %arg1[0, %arg3, %3] : memref<1x8x4xf32>
    affine.store %4, %alloca_4[0, %arg3, %3] : memref<1x8x4xf32>
    %5 = affine.apply affine_map<(d0) -> (d0 + 3)>(%c0_2)
    %6 = affine.load %arg1[0, %arg3, %5] : memref<1x8x4xf32>
    affine.store %6, %alloca_4[0, %arg3, %5] : memref<1x8x4xf32>
  }
  %alloca_5 = memref.alloca() : memref<1x4x4xf32>
  affine.for %arg3 = 0 to 4 {
    %0 = affine.load %arg2[0, %arg3, %c0_1] : memref<1x4x4xf32>
    affine.store %0, %alloca_5[0, %arg3, %c0_1] : memref<1x4x4xf32>
    %1 = affine.apply affine_map<(d0) -> (d0 + 1)>(%c0_1)
    %2 = affine.load %arg2[0, %arg3, %1] : memref<1x4x4xf32>
    affine.store %2, %alloca_5[0, %arg3, %1] : memref<1x4x4xf32>
    %3 = affine.apply affine_map<(d0) -> (d0 + 2)>(%c0_1)
    %4 = affine.load %arg2[0, %arg3, %3] : memref<1x4x4xf32>
    affine.store %4, %alloca_5[0, %arg3, %3] : memref<1x4x4xf32>
    %5 = affine.apply affine_map<(d0) -> (d0 + 3)>(%c0_1)
    %6 = affine.load %arg2[0, %arg3, %5] : memref<1x4x4xf32>
    affine.store %6, %alloca_5[0, %arg3, %5] : memref<1x4x4xf32>
  }
  affine.for %arg3 = 0 to 1 {
    affine.for %arg4 = 0 to 4 {
      affine.for %arg5 = 0 to 4 {
        %0 = affine.load %alloca[%arg3, %arg4, %c0_0] : memref<1x4x8xf32>
        %1 = affine.load %alloca_4[%arg3, %c0_0, %arg5] : memref<1x8x4xf32>
        %2 = affine.load %alloca_5[%arg3, %arg4, %arg5] : memref<1x4x4xf32>
        %3 = arith.mulf %0, %1 : f32
        %4 = arith.addf %2, %3 : f32
        affine.store %4, %alloca_5[%arg3, %arg4, %arg5] : memref<1x4x4xf32>
        %5 = affine.apply affine_map<(d0) -> (d0 + 1)>(%c0_0)
        %6 = affine.load %alloca[%arg3, %arg4, %5] : memref<1x4x8xf32>
        %7 = affine.load %alloca_4[%arg3, %5, %arg5] : memref<1x8x4xf32>
        %8 = affine.load %alloca_5[%arg3, %arg4, %arg5] : memref<1x4x4xf32>
        %9 = arith.mulf %6, %7 : f32
        %10 = arith.addf %8, %9 : f32
        affine.store %10, %alloca_5[%arg3, %arg4, %arg5] : memref<1x4x4xf32>
        %11 = affine.apply affine_map<(d0) -> (d0 + 2)>(%c0_0)
        %12 = affine.load %alloca[%arg3, %arg4, %11] : memref<1x4x8xf32>
        %13 = affine.load %alloca_4[%arg3, %11, %arg5] : memref<1x8x4xf32>
        %14 = affine.load %alloca_5[%arg3, %arg4, %arg5] : memref<1x4x4xf32>
        %15 = arith.mulf %12, %13 : f32
        %16 = arith.addf %14, %15 : f32
        affine.store %16, %alloca_5[%arg3, %arg4, %arg5] : memref<1x4x4xf32>
        %17 = affine.apply affine_map<(d0) -> (d0 + 3)>(%c0_0)
        %18 = affine.load %alloca[%arg3, %arg4, %17] : memref<1x4x8xf32>
        %19 = affine.load %alloca_4[%arg3, %17, %arg5] : memref<1x8x4xf32>
        %20 = affine.load %alloca_5[%arg3, %arg4, %arg5] : memref<1x4x4xf32>
        %21 = arith.mulf %18, %19 : f32
        %22 = arith.addf %20, %21 : f32
        affine.store %22, %alloca_5[%arg3, %arg4, %arg5] : memref<1x4x4xf32>
        %23 = affine.apply affine_map<(d0) -> (d0 + 4)>(%c0_0)
        %24 = affine.load %alloca[%arg3, %arg4, %23] : memref<1x4x8xf32>
        %25 = affine.load %alloca_4[%arg3, %23, %arg5] : memref<1x8x4xf32>
        %26 = affine.load %alloca_5[%arg3, %arg4, %arg5] : memref<1x4x4xf32>
        %27 = arith.mulf %24, %25 : f32
        %28 = arith.addf %26, %27 : f32
        affine.store %28, %alloca_5[%arg3, %arg4, %arg5] : memref<1x4x4xf32>
        %29 = affine.apply affine_map<(d0) -> (d0 + 5)>(%c0_0)
        %30 = affine.load %alloca[%arg3, %arg4, %29] : memref<1x4x8xf32>
        %31 = affine.load %alloca_4[%arg3, %29, %arg5] : memref<1x8x4xf32>
        %32 = affine.load %alloca_5[%arg3, %arg4, %arg5] : memref<1x4x4xf32>
        %33 = arith.mulf %30, %31 : f32
        %34 = arith.addf %32, %33 : f32
        affine.store %34, %alloca_5[%arg3, %arg4, %arg5] : memref<1x4x4xf32>
        %35 = affine.apply affine_map<(d0) -> (d0 + 6)>(%c0_0)
        %36 = affine.load %alloca[%arg3, %arg4, %35] : memref<1x4x8xf32>
        %37 = affine.load %alloca_4[%arg3, %35, %arg5] : memref<1x8x4xf32>
        %38 = affine.load %alloca_5[%arg3, %arg4, %arg5] : memref<1x4x4xf32>
        %39 = arith.mulf %36, %37 : f32
        %40 = arith.addf %38, %39 : f32
        affine.store %40, %alloca_5[%arg3, %arg4, %arg5] : memref<1x4x4xf32>
        %41 = affine.apply affine_map<(d0) -> (d0 + 7)>(%c0_0)
        %42 = affine.load %alloca[%arg3, %arg4, %41] : memref<1x4x8xf32>
        %43 = affine.load %alloca_4[%arg3, %41, %arg5] : memref<1x8x4xf32>
        %44 = affine.load %alloca_5[%arg3, %arg4, %arg5] : memref<1x4x4xf32>
        %45 = arith.mulf %42, %43 : f32
        %46 = arith.addf %44, %45 : f32
        affine.store %46, %alloca_5[%arg3, %arg4, %arg5] : memref<1x4x4xf32>
      }
    }
  }
  affine.for %arg3 = 0 to 4 {
    %0 = affine.load %alloca_5[0, %arg3, %c0] : memref<1x4x4xf32>
    affine.store %0, %arg2[0, %arg3, %c0] : memref<1x4x4xf32>
    %1 = affine.apply affine_map<(d0) -> (d0 + 1)>(%c0)
    %2 = affine.load %alloca_5[0, %arg3, %1] : memref<1x4x4xf32>
    affine.store %2, %arg2[0, %arg3, %1] : memref<1x4x4xf32>
    %3 = affine.apply affine_map<(d0) -> (d0 + 2)>(%c0)
    %4 = affine.load %alloca_5[0, %arg3, %3] : memref<1x4x4xf32>
    affine.store %4, %arg2[0, %arg3, %3] : memref<1x4x4xf32>
    %5 = affine.apply affine_map<(d0) -> (d0 + 3)>(%c0)
    %6 = affine.load %alloca_5[0, %arg3, %5] : memref<1x4x4xf32>
    affine.store %6, %arg2[0, %arg3, %5] : memref<1x4x4xf32>
  }
  return
}

// -----// IR Dump After AffineLoopUnroll (affine-loop-unroll) //----- //
func.func @main_kernel(%arg0: memref<1x4x8xf32> {llvm.noalias}, %arg1: memref<1x8x4xf32> {llvm.noalias}, %arg2: memref<1x4x4xf32> {llvm.noalias}) {
  %c0 = arith.constant 0 : index
  %c0_0 = arith.constant 0 : index
  %c0_1 = arith.constant 0 : index
  %c0_2 = arith.constant 0 : index
  %c0_3 = arith.constant 0 : index
  %c0_4 = arith.constant 0 : index
  %c0_5 = arith.constant 0 : index
  %c0_6 = arith.constant 0 : index
  %c0_7 = arith.constant 0 : index
  %c0_8 = arith.constant 0 : index
  cf.br ^bb1
^bb1:  // pred: ^bb0
  %alloca = memref.alloca() : memref<1x4x8xf32>
  %0 = affine.load %arg0[0, %c0_3, %c0_8] : memref<1x4x8xf32>
  affine.store %0, %alloca[0, %c0_3, %c0_8] : memref<1x4x8xf32>
  %1 = affine.apply affine_map<(d0) -> (d0 + 1)>(%c0_8)
  %2 = affine.load %arg0[0, %c0_3, %1] : memref<1x4x8xf32>
  affine.store %2, %alloca[0, %c0_3, %1] : memref<1x4x8xf32>
  %3 = affine.apply affine_map<(d0) -> (d0 + 2)>(%c0_8)
  %4 = affine.load %arg0[0, %c0_3, %3] : memref<1x4x8xf32>
  affine.store %4, %alloca[0, %c0_3, %3] : memref<1x4x8xf32>
  %5 = affine.apply affine_map<(d0) -> (d0 + 3)>(%c0_8)
  %6 = affine.load %arg0[0, %c0_3, %5] : memref<1x4x8xf32>
  affine.store %6, %alloca[0, %c0_3, %5] : memref<1x4x8xf32>
  %7 = affine.apply affine_map<(d0) -> (d0 + 4)>(%c0_8)
  %8 = affine.load %arg0[0, %c0_3, %7] : memref<1x4x8xf32>
  affine.store %8, %alloca[0, %c0_3, %7] : memref<1x4x8xf32>
  %9 = affine.apply affine_map<(d0) -> (d0 + 5)>(%c0_8)
  %10 = affine.load %arg0[0, %c0_3, %9] : memref<1x4x8xf32>
  affine.store %10, %alloca[0, %c0_3, %9] : memref<1x4x8xf32>
  %11 = affine.apply affine_map<(d0) -> (d0 + 6)>(%c0_8)
  %12 = affine.load %arg0[0, %c0_3, %11] : memref<1x4x8xf32>
  affine.store %12, %alloca[0, %c0_3, %11] : memref<1x4x8xf32>
  %13 = affine.apply affine_map<(d0) -> (d0 + 7)>(%c0_8)
  %14 = affine.load %arg0[0, %c0_3, %13] : memref<1x4x8xf32>
  affine.store %14, %alloca[0, %c0_3, %13] : memref<1x4x8xf32>
  %15 = affine.apply affine_map<(d0) -> (d0 + 1)>(%c0_3)
  %16 = affine.load %arg0[0, %15, %c0_8] : memref<1x4x8xf32>
  affine.store %16, %alloca[0, %15, %c0_8] : memref<1x4x8xf32>
  %17 = affine.apply affine_map<(d0) -> (d0 + 1)>(%c0_8)
  %18 = affine.load %arg0[0, %15, %17] : memref<1x4x8xf32>
  affine.store %18, %alloca[0, %15, %17] : memref<1x4x8xf32>
  %19 = affine.apply affine_map<(d0) -> (d0 + 2)>(%c0_8)
  %20 = affine.load %arg0[0, %15, %19] : memref<1x4x8xf32>
  affine.store %20, %alloca[0, %15, %19] : memref<1x4x8xf32>
  %21 = affine.apply affine_map<(d0) -> (d0 + 3)>(%c0_8)
  %22 = affine.load %arg0[0, %15, %21] : memref<1x4x8xf32>
  affine.store %22, %alloca[0, %15, %21] : memref<1x4x8xf32>
  %23 = affine.apply affine_map<(d0) -> (d0 + 4)>(%c0_8)
  %24 = affine.load %arg0[0, %15, %23] : memref<1x4x8xf32>
  affine.store %24, %alloca[0, %15, %23] : memref<1x4x8xf32>
  %25 = affine.apply affine_map<(d0) -> (d0 + 5)>(%c0_8)
  %26 = affine.load %arg0[0, %15, %25] : memref<1x4x8xf32>
  affine.store %26, %alloca[0, %15, %25] : memref<1x4x8xf32>
  %27 = affine.apply affine_map<(d0) -> (d0 + 6)>(%c0_8)
  %28 = affine.load %arg0[0, %15, %27] : memref<1x4x8xf32>
  affine.store %28, %alloca[0, %15, %27] : memref<1x4x8xf32>
  %29 = affine.apply affine_map<(d0) -> (d0 + 7)>(%c0_8)
  %30 = affine.load %arg0[0, %15, %29] : memref<1x4x8xf32>
  affine.store %30, %alloca[0, %15, %29] : memref<1x4x8xf32>
  %31 = affine.apply affine_map<(d0) -> (d0 + 2)>(%c0_3)
  %32 = affine.load %arg0[0, %31, %c0_8] : memref<1x4x8xf32>
  affine.store %32, %alloca[0, %31, %c0_8] : memref<1x4x8xf32>
  %33 = affine.apply affine_map<(d0) -> (d0 + 1)>(%c0_8)
  %34 = affine.load %arg0[0, %31, %33] : memref<1x4x8xf32>
  affine.store %34, %alloca[0, %31, %33] : memref<1x4x8xf32>
  %35 = affine.apply affine_map<(d0) -> (d0 + 2)>(%c0_8)
  %36 = affine.load %arg0[0, %31, %35] : memref<1x4x8xf32>
  affine.store %36, %alloca[0, %31, %35] : memref<1x4x8xf32>
  %37 = affine.apply affine_map<(d0) -> (d0 + 3)>(%c0_8)
  %38 = affine.load %arg0[0, %31, %37] : memref<1x4x8xf32>
  affine.store %38, %alloca[0, %31, %37] : memref<1x4x8xf32>
  %39 = affine.apply affine_map<(d0) -> (d0 + 4)>(%c0_8)
  %40 = affine.load %arg0[0, %31, %39] : memref<1x4x8xf32>
  affine.store %40, %alloca[0, %31, %39] : memref<1x4x8xf32>
  %41 = affine.apply affine_map<(d0) -> (d0 + 5)>(%c0_8)
  %42 = affine.load %arg0[0, %31, %41] : memref<1x4x8xf32>
  affine.store %42, %alloca[0, %31, %41] : memref<1x4x8xf32>
  %43 = affine.apply affine_map<(d0) -> (d0 + 6)>(%c0_8)
  %44 = affine.load %arg0[0, %31, %43] : memref<1x4x8xf32>
  affine.store %44, %alloca[0, %31, %43] : memref<1x4x8xf32>
  %45 = affine.apply affine_map<(d0) -> (d0 + 7)>(%c0_8)
  %46 = affine.load %arg0[0, %31, %45] : memref<1x4x8xf32>
  affine.store %46, %alloca[0, %31, %45] : memref<1x4x8xf32>
  %47 = affine.apply affine_map<(d0) -> (d0 + 3)>(%c0_3)
  %48 = affine.load %arg0[0, %47, %c0_8] : memref<1x4x8xf32>
  affine.store %48, %alloca[0, %47, %c0_8] : memref<1x4x8xf32>
  %49 = affine.apply affine_map<(d0) -> (d0 + 1)>(%c0_8)
  %50 = affine.load %arg0[0, %47, %49] : memref<1x4x8xf32>
  affine.store %50, %alloca[0, %47, %49] : memref<1x4x8xf32>
  %51 = affine.apply affine_map<(d0) -> (d0 + 2)>(%c0_8)
  %52 = affine.load %arg0[0, %47, %51] : memref<1x4x8xf32>
  affine.store %52, %alloca[0, %47, %51] : memref<1x4x8xf32>
  %53 = affine.apply affine_map<(d0) -> (d0 + 3)>(%c0_8)
  %54 = affine.load %arg0[0, %47, %53] : memref<1x4x8xf32>
  affine.store %54, %alloca[0, %47, %53] : memref<1x4x8xf32>
  %55 = affine.apply affine_map<(d0) -> (d0 + 4)>(%c0_8)
  %56 = affine.load %arg0[0, %47, %55] : memref<1x4x8xf32>
  affine.store %56, %alloca[0, %47, %55] : memref<1x4x8xf32>
  %57 = affine.apply affine_map<(d0) -> (d0 + 5)>(%c0_8)
  %58 = affine.load %arg0[0, %47, %57] : memref<1x4x8xf32>
  affine.store %58, %alloca[0, %47, %57] : memref<1x4x8xf32>
  %59 = affine.apply affine_map<(d0) -> (d0 + 6)>(%c0_8)
  %60 = affine.load %arg0[0, %47, %59] : memref<1x4x8xf32>
  affine.store %60, %alloca[0, %47, %59] : memref<1x4x8xf32>
  %61 = affine.apply affine_map<(d0) -> (d0 + 7)>(%c0_8)
  %62 = affine.load %arg0[0, %47, %61] : memref<1x4x8xf32>
  affine.store %62, %alloca[0, %47, %61] : memref<1x4x8xf32>
  %alloca_9 = memref.alloca() : memref<1x8x4xf32>
  %63 = affine.load %arg1[0, %c0_2, %c0_7] : memref<1x8x4xf32>
  affine.store %63, %alloca_9[0, %c0_2, %c0_7] : memref<1x8x4xf32>
  %64 = affine.apply affine_map<(d0) -> (d0 + 1)>(%c0_7)
  %65 = affine.load %arg1[0, %c0_2, %64] : memref<1x8x4xf32>
  affine.store %65, %alloca_9[0, %c0_2, %64] : memref<1x8x4xf32>
  %66 = affine.apply affine_map<(d0) -> (d0 + 2)>(%c0_7)
  %67 = affine.load %arg1[0, %c0_2, %66] : memref<1x8x4xf32>
  affine.store %67, %alloca_9[0, %c0_2, %66] : memref<1x8x4xf32>
  %68 = affine.apply affine_map<(d0) -> (d0 + 3)>(%c0_7)
  %69 = affine.load %arg1[0, %c0_2, %68] : memref<1x8x4xf32>
  affine.store %69, %alloca_9[0, %c0_2, %68] : memref<1x8x4xf32>
  %70 = affine.apply affine_map<(d0) -> (d0 + 1)>(%c0_2)
  %71 = affine.load %arg1[0, %70, %c0_7] : memref<1x8x4xf32>
  affine.store %71, %alloca_9[0, %70, %c0_7] : memref<1x8x4xf32>
  %72 = affine.apply affine_map<(d0) -> (d0 + 1)>(%c0_7)
  %73 = affine.load %arg1[0, %70, %72] : memref<1x8x4xf32>
  affine.store %73, %alloca_9[0, %70, %72] : memref<1x8x4xf32>
  %74 = affine.apply affine_map<(d0) -> (d0 + 2)>(%c0_7)
  %75 = affine.load %arg1[0, %70, %74] : memref<1x8x4xf32>
  affine.store %75, %alloca_9[0, %70, %74] : memref<1x8x4xf32>
  %76 = affine.apply affine_map<(d0) -> (d0 + 3)>(%c0_7)
  %77 = affine.load %arg1[0, %70, %76] : memref<1x8x4xf32>
  affine.store %77, %alloca_9[0, %70, %76] : memref<1x8x4xf32>
  %78 = affine.apply affine_map<(d0) -> (d0 + 2)>(%c0_2)
  %79 = affine.load %arg1[0, %78, %c0_7] : memref<1x8x4xf32>
  affine.store %79, %alloca_9[0, %78, %c0_7] : memref<1x8x4xf32>
  %80 = affine.apply affine_map<(d0) -> (d0 + 1)>(%c0_7)
  %81 = affine.load %arg1[0, %78, %80] : memref<1x8x4xf32>
  affine.store %81, %alloca_9[0, %78, %80] : memref<1x8x4xf32>
  %82 = affine.apply affine_map<(d0) -> (d0 + 2)>(%c0_7)
  %83 = affine.load %arg1[0, %78, %82] : memref<1x8x4xf32>
  affine.store %83, %alloca_9[0, %78, %82] : memref<1x8x4xf32>
  %84 = affine.apply affine_map<(d0) -> (d0 + 3)>(%c0_7)
  %85 = affine.load %arg1[0, %78, %84] : memref<1x8x4xf32>
  affine.store %85, %alloca_9[0, %78, %84] : memref<1x8x4xf32>
  %86 = affine.apply affine_map<(d0) -> (d0 + 3)>(%c0_2)
  %87 = affine.load %arg1[0, %86, %c0_7] : memref<1x8x4xf32>
  affine.store %87, %alloca_9[0, %86, %c0_7] : memref<1x8x4xf32>
  %88 = affine.apply affine_map<(d0) -> (d0 + 1)>(%c0_7)
  %89 = affine.load %arg1[0, %86, %88] : memref<1x8x4xf32>
  affine.store %89, %alloca_9[0, %86, %88] : memref<1x8x4xf32>
  %90 = affine.apply affine_map<(d0) -> (d0 + 2)>(%c0_7)
  %91 = affine.load %arg1[0, %86, %90] : memref<1x8x4xf32>
  affine.store %91, %alloca_9[0, %86, %90] : memref<1x8x4xf32>
  %92 = affine.apply affine_map<(d0) -> (d0 + 3)>(%c0_7)
  %93 = affine.load %arg1[0, %86, %92] : memref<1x8x4xf32>
  affine.store %93, %alloca_9[0, %86, %92] : memref<1x8x4xf32>
  %94 = affine.apply affine_map<(d0) -> (d0 + 4)>(%c0_2)
  %95 = affine.load %arg1[0, %94, %c0_7] : memref<1x8x4xf32>
  affine.store %95, %alloca_9[0, %94, %c0_7] : memref<1x8x4xf32>
  %96 = affine.apply affine_map<(d0) -> (d0 + 1)>(%c0_7)
  %97 = affine.load %arg1[0, %94, %96] : memref<1x8x4xf32>
  affine.store %97, %alloca_9[0, %94, %96] : memref<1x8x4xf32>
  %98 = affine.apply affine_map<(d0) -> (d0 + 2)>(%c0_7)
  %99 = affine.load %arg1[0, %94, %98] : memref<1x8x4xf32>
  affine.store %99, %alloca_9[0, %94, %98] : memref<1x8x4xf32>
  %100 = affine.apply affine_map<(d0) -> (d0 + 3)>(%c0_7)
  %101 = affine.load %arg1[0, %94, %100] : memref<1x8x4xf32>
  affine.store %101, %alloca_9[0, %94, %100] : memref<1x8x4xf32>
  %102 = affine.apply affine_map<(d0) -> (d0 + 5)>(%c0_2)
  %103 = affine.load %arg1[0, %102, %c0_7] : memref<1x8x4xf32>
  affine.store %103, %alloca_9[0, %102, %c0_7] : memref<1x8x4xf32>
  %104 = affine.apply affine_map<(d0) -> (d0 + 1)>(%c0_7)
  %105 = affine.load %arg1[0, %102, %104] : memref<1x8x4xf32>
  affine.store %105, %alloca_9[0, %102, %104] : memref<1x8x4xf32>
  %106 = affine.apply affine_map<(d0) -> (d0 + 2)>(%c0_7)
  %107 = affine.load %arg1[0, %102, %106] : memref<1x8x4xf32>
  affine.store %107, %alloca_9[0, %102, %106] : memref<1x8x4xf32>
  %108 = affine.apply affine_map<(d0) -> (d0 + 3)>(%c0_7)
  %109 = affine.load %arg1[0, %102, %108] : memref<1x8x4xf32>
  affine.store %109, %alloca_9[0, %102, %108] : memref<1x8x4xf32>
  %110 = affine.apply affine_map<(d0) -> (d0 + 6)>(%c0_2)
  %111 = affine.load %arg1[0, %110, %c0_7] : memref<1x8x4xf32>
  affine.store %111, %alloca_9[0, %110, %c0_7] : memref<1x8x4xf32>
  %112 = affine.apply affine_map<(d0) -> (d0 + 1)>(%c0_7)
  %113 = affine.load %arg1[0, %110, %112] : memref<1x8x4xf32>
  affine.store %113, %alloca_9[0, %110, %112] : memref<1x8x4xf32>
  %114 = affine.apply affine_map<(d0) -> (d0 + 2)>(%c0_7)
  %115 = affine.load %arg1[0, %110, %114] : memref<1x8x4xf32>
  affine.store %115, %alloca_9[0, %110, %114] : memref<1x8x4xf32>
  %116 = affine.apply affine_map<(d0) -> (d0 + 3)>(%c0_7)
  %117 = affine.load %arg1[0, %110, %116] : memref<1x8x4xf32>
  affine.store %117, %alloca_9[0, %110, %116] : memref<1x8x4xf32>
  %118 = affine.apply affine_map<(d0) -> (d0 + 7)>(%c0_2)
  %119 = affine.load %arg1[0, %118, %c0_7] : memref<1x8x4xf32>
  affine.store %119, %alloca_9[0, %118, %c0_7] : memref<1x8x4xf32>
  %120 = affine.apply affine_map<(d0) -> (d0 + 1)>(%c0_7)
  %121 = affine.load %arg1[0, %118, %120] : memref<1x8x4xf32>
  affine.store %121, %alloca_9[0, %118, %120] : memref<1x8x4xf32>
  %122 = affine.apply affine_map<(d0) -> (d0 + 2)>(%c0_7)
  %123 = affine.load %arg1[0, %118, %122] : memref<1x8x4xf32>
  affine.store %123, %alloca_9[0, %118, %122] : memref<1x8x4xf32>
  %124 = affine.apply affine_map<(d0) -> (d0 + 3)>(%c0_7)
  %125 = affine.load %arg1[0, %118, %124] : memref<1x8x4xf32>
  affine.store %125, %alloca_9[0, %118, %124] : memref<1x8x4xf32>
  %alloca_10 = memref.alloca() : memref<1x4x4xf32>
  %126 = affine.load %arg2[0, %c0_1, %c0_6] : memref<1x4x4xf32>
  affine.store %126, %alloca_10[0, %c0_1, %c0_6] : memref<1x4x4xf32>
  %127 = affine.apply affine_map<(d0) -> (d0 + 1)>(%c0_6)
  %128 = affine.load %arg2[0, %c0_1, %127] : memref<1x4x4xf32>
  affine.store %128, %alloca_10[0, %c0_1, %127] : memref<1x4x4xf32>
  %129 = affine.apply affine_map<(d0) -> (d0 + 2)>(%c0_6)
  %130 = affine.load %arg2[0, %c0_1, %129] : memref<1x4x4xf32>
  affine.store %130, %alloca_10[0, %c0_1, %129] : memref<1x4x4xf32>
  %131 = affine.apply affine_map<(d0) -> (d0 + 3)>(%c0_6)
  %132 = affine.load %arg2[0, %c0_1, %131] : memref<1x4x4xf32>
  affine.store %132, %alloca_10[0, %c0_1, %131] : memref<1x4x4xf32>
  %133 = affine.apply affine_map<(d0) -> (d0 + 1)>(%c0_1)
  %134 = affine.load %arg2[0, %133, %c0_6] : memref<1x4x4xf32>
  affine.store %134, %alloca_10[0, %133, %c0_6] : memref<1x4x4xf32>
  %135 = affine.apply affine_map<(d0) -> (d0 + 1)>(%c0_6)
  %136 = affine.load %arg2[0, %133, %135] : memref<1x4x4xf32>
  affine.store %136, %alloca_10[0, %133, %135] : memref<1x4x4xf32>
  %137 = affine.apply affine_map<(d0) -> (d0 + 2)>(%c0_6)
  %138 = affine.load %arg2[0, %133, %137] : memref<1x4x4xf32>
  affine.store %138, %alloca_10[0, %133, %137] : memref<1x4x4xf32>
  %139 = affine.apply affine_map<(d0) -> (d0 + 3)>(%c0_6)
  %140 = affine.load %arg2[0, %133, %139] : memref<1x4x4xf32>
  affine.store %140, %alloca_10[0, %133, %139] : memref<1x4x4xf32>
  %141 = affine.apply affine_map<(d0) -> (d0 + 2)>(%c0_1)
  %142 = affine.load %arg2[0, %141, %c0_6] : memref<1x4x4xf32>
  affine.store %142, %alloca_10[0, %141, %c0_6] : memref<1x4x4xf32>
  %143 = affine.apply affine_map<(d0) -> (d0 + 1)>(%c0_6)
  %144 = affine.load %arg2[0, %141, %143] : memref<1x4x4xf32>
  affine.store %144, %alloca_10[0, %141, %143] : memref<1x4x4xf32>
  %145 = affine.apply affine_map<(d0) -> (d0 + 2)>(%c0_6)
  %146 = affine.load %arg2[0, %141, %145] : memref<1x4x4xf32>
  affine.store %146, %alloca_10[0, %141, %145] : memref<1x4x4xf32>
  %147 = affine.apply affine_map<(d0) -> (d0 + 3)>(%c0_6)
  %148 = affine.load %arg2[0, %141, %147] : memref<1x4x4xf32>
  affine.store %148, %alloca_10[0, %141, %147] : memref<1x4x4xf32>
  %149 = affine.apply affine_map<(d0) -> (d0 + 3)>(%c0_1)
  %150 = affine.load %arg2[0, %149, %c0_6] : memref<1x4x4xf32>
  affine.store %150, %alloca_10[0, %149, %c0_6] : memref<1x4x4xf32>
  %151 = affine.apply affine_map<(d0) -> (d0 + 1)>(%c0_6)
  %152 = affine.load %arg2[0, %149, %151] : memref<1x4x4xf32>
  affine.store %152, %alloca_10[0, %149, %151] : memref<1x4x4xf32>
  %153 = affine.apply affine_map<(d0) -> (d0 + 2)>(%c0_6)
  %154 = affine.load %arg2[0, %149, %153] : memref<1x4x4xf32>
  affine.store %154, %alloca_10[0, %149, %153] : memref<1x4x4xf32>
  %155 = affine.apply affine_map<(d0) -> (d0 + 3)>(%c0_6)
  %156 = affine.load %arg2[0, %149, %155] : memref<1x4x4xf32>
  affine.store %156, %alloca_10[0, %149, %155] : memref<1x4x4xf32>
  affine.for %arg3 = 0 to 1 {
    affine.for %arg4 = 0 to 4 {
      %188 = affine.load %alloca[%arg3, %arg4, %c0_5] : memref<1x4x8xf32>
      %189 = affine.load %alloca_9[%arg3, %c0_5, %c0_0] : memref<1x8x4xf32>
      %190 = affine.load %alloca_10[%arg3, %arg4, %c0_0] : memref<1x4x4xf32>
      %191 = arith.mulf %188, %189 : f32
      %192 = arith.addf %190, %191 : f32
      affine.store %192, %alloca_10[%arg3, %arg4, %c0_0] : memref<1x4x4xf32>
      %193 = affine.apply affine_map<(d0) -> (d0 + 1)>(%c0_5)
      %194 = affine.load %alloca[%arg3, %arg4, %193] : memref<1x4x8xf32>
      %195 = affine.load %alloca_9[%arg3, %193, %c0_0] : memref<1x8x4xf32>
      %196 = affine.load %alloca_10[%arg3, %arg4, %c0_0] : memref<1x4x4xf32>
      %197 = arith.mulf %194, %195 : f32
      %198 = arith.addf %196, %197 : f32
      affine.store %198, %alloca_10[%arg3, %arg4, %c0_0] : memref<1x4x4xf32>
      %199 = affine.apply affine_map<(d0) -> (d0 + 2)>(%c0_5)
      %200 = affine.load %alloca[%arg3, %arg4, %199] : memref<1x4x8xf32>
      %201 = affine.load %alloca_9[%arg3, %199, %c0_0] : memref<1x8x4xf32>
      %202 = affine.load %alloca_10[%arg3, %arg4, %c0_0] : memref<1x4x4xf32>
      %203 = arith.mulf %200, %201 : f32
      %204 = arith.addf %202, %203 : f32
      affine.store %204, %alloca_10[%arg3, %arg4, %c0_0] : memref<1x4x4xf32>
      %205 = affine.apply affine_map<(d0) -> (d0 + 3)>(%c0_5)
      %206 = affine.load %alloca[%arg3, %arg4, %205] : memref<1x4x8xf32>
      %207 = affine.load %alloca_9[%arg3, %205, %c0_0] : memref<1x8x4xf32>
      %208 = affine.load %alloca_10[%arg3, %arg4, %c0_0] : memref<1x4x4xf32>
      %209 = arith.mulf %206, %207 : f32
      %210 = arith.addf %208, %209 : f32
      affine.store %210, %alloca_10[%arg3, %arg4, %c0_0] : memref<1x4x4xf32>
      %211 = affine.apply affine_map<(d0) -> (d0 + 4)>(%c0_5)
      %212 = affine.load %alloca[%arg3, %arg4, %211] : memref<1x4x8xf32>
      %213 = affine.load %alloca_9[%arg3, %211, %c0_0] : memref<1x8x4xf32>
      %214 = affine.load %alloca_10[%arg3, %arg4, %c0_0] : memref<1x4x4xf32>
      %215 = arith.mulf %212, %213 : f32
      %216 = arith.addf %214, %215 : f32
      affine.store %216, %alloca_10[%arg3, %arg4, %c0_0] : memref<1x4x4xf32>
      %217 = affine.apply affine_map<(d0) -> (d0 + 5)>(%c0_5)
      %218 = affine.load %alloca[%arg3, %arg4, %217] : memref<1x4x8xf32>
      %219 = affine.load %alloca_9[%arg3, %217, %c0_0] : memref<1x8x4xf32>
      %220 = affine.load %alloca_10[%arg3, %arg4, %c0_0] : memref<1x4x4xf32>
      %221 = arith.mulf %218, %219 : f32
      %222 = arith.addf %220, %221 : f32
      affine.store %222, %alloca_10[%arg3, %arg4, %c0_0] : memref<1x4x4xf32>
      %223 = affine.apply affine_map<(d0) -> (d0 + 6)>(%c0_5)
      %224 = affine.load %alloca[%arg3, %arg4, %223] : memref<1x4x8xf32>
      %225 = affine.load %alloca_9[%arg3, %223, %c0_0] : memref<1x8x4xf32>
      %226 = affine.load %alloca_10[%arg3, %arg4, %c0_0] : memref<1x4x4xf32>
      %227 = arith.mulf %224, %225 : f32
      %228 = arith.addf %226, %227 : f32
      affine.store %228, %alloca_10[%arg3, %arg4, %c0_0] : memref<1x4x4xf32>
      %229 = affine.apply affine_map<(d0) -> (d0 + 7)>(%c0_5)
      %230 = affine.load %alloca[%arg3, %arg4, %229] : memref<1x4x8xf32>
      %231 = affine.load %alloca_9[%arg3, %229, %c0_0] : memref<1x8x4xf32>
      %232 = affine.load %alloca_10[%arg3, %arg4, %c0_0] : memref<1x4x4xf32>
      %233 = arith.mulf %230, %231 : f32
      %234 = arith.addf %232, %233 : f32
      affine.store %234, %alloca_10[%arg3, %arg4, %c0_0] : memref<1x4x4xf32>
      %235 = affine.apply affine_map<(d0) -> (d0 + 1)>(%c0_0)
      %236 = affine.load %alloca[%arg3, %arg4, %c0_5] : memref<1x4x8xf32>
      %237 = affine.load %alloca_9[%arg3, %c0_5, %235] : memref<1x8x4xf32>
      %238 = affine.load %alloca_10[%arg3, %arg4, %235] : memref<1x4x4xf32>
      %239 = arith.mulf %236, %237 : f32
      %240 = arith.addf %238, %239 : f32
      affine.store %240, %alloca_10[%arg3, %arg4, %235] : memref<1x4x4xf32>
      %241 = affine.apply affine_map<(d0) -> (d0 + 1)>(%c0_5)
      %242 = affine.load %alloca[%arg3, %arg4, %241] : memref<1x4x8xf32>
      %243 = affine.load %alloca_9[%arg3, %241, %235] : memref<1x8x4xf32>
      %244 = affine.load %alloca_10[%arg3, %arg4, %235] : memref<1x4x4xf32>
      %245 = arith.mulf %242, %243 : f32
      %246 = arith.addf %244, %245 : f32
      affine.store %246, %alloca_10[%arg3, %arg4, %235] : memref<1x4x4xf32>
      %247 = affine.apply affine_map<(d0) -> (d0 + 2)>(%c0_5)
      %248 = affine.load %alloca[%arg3, %arg4, %247] : memref<1x4x8xf32>
      %249 = affine.load %alloca_9[%arg3, %247, %235] : memref<1x8x4xf32>
      %250 = affine.load %alloca_10[%arg3, %arg4, %235] : memref<1x4x4xf32>
      %251 = arith.mulf %248, %249 : f32
      %252 = arith.addf %250, %251 : f32
      affine.store %252, %alloca_10[%arg3, %arg4, %235] : memref<1x4x4xf32>
      %253 = affine.apply affine_map<(d0) -> (d0 + 3)>(%c0_5)
      %254 = affine.load %alloca[%arg3, %arg4, %253] : memref<1x4x8xf32>
      %255 = affine.load %alloca_9[%arg3, %253, %235] : memref<1x8x4xf32>
      %256 = affine.load %alloca_10[%arg3, %arg4, %235] : memref<1x4x4xf32>
      %257 = arith.mulf %254, %255 : f32
      %258 = arith.addf %256, %257 : f32
      affine.store %258, %alloca_10[%arg3, %arg4, %235] : memref<1x4x4xf32>
      %259 = affine.apply affine_map<(d0) -> (d0 + 4)>(%c0_5)
      %260 = affine.load %alloca[%arg3, %arg4, %259] : memref<1x4x8xf32>
      %261 = affine.load %alloca_9[%arg3, %259, %235] : memref<1x8x4xf32>
      %262 = affine.load %alloca_10[%arg3, %arg4, %235] : memref<1x4x4xf32>
      %263 = arith.mulf %260, %261 : f32
      %264 = arith.addf %262, %263 : f32
      affine.store %264, %alloca_10[%arg3, %arg4, %235] : memref<1x4x4xf32>
      %265 = affine.apply affine_map<(d0) -> (d0 + 5)>(%c0_5)
      %266 = affine.load %alloca[%arg3, %arg4, %265] : memref<1x4x8xf32>
      %267 = affine.load %alloca_9[%arg3, %265, %235] : memref<1x8x4xf32>
      %268 = affine.load %alloca_10[%arg3, %arg4, %235] : memref<1x4x4xf32>
      %269 = arith.mulf %266, %267 : f32
      %270 = arith.addf %268, %269 : f32
      affine.store %270, %alloca_10[%arg3, %arg4, %235] : memref<1x4x4xf32>
      %271 = affine.apply affine_map<(d0) -> (d0 + 6)>(%c0_5)
      %272 = affine.load %alloca[%arg3, %arg4, %271] : memref<1x4x8xf32>
      %273 = affine.load %alloca_9[%arg3, %271, %235] : memref<1x8x4xf32>
      %274 = affine.load %alloca_10[%arg3, %arg4, %235] : memref<1x4x4xf32>
      %275 = arith.mulf %272, %273 : f32
      %276 = arith.addf %274, %275 : f32
      affine.store %276, %alloca_10[%arg3, %arg4, %235] : memref<1x4x4xf32>
      %277 = affine.apply affine_map<(d0) -> (d0 + 7)>(%c0_5)
      %278 = affine.load %alloca[%arg3, %arg4, %277] : memref<1x4x8xf32>
      %279 = affine.load %alloca_9[%arg3, %277, %235] : memref<1x8x4xf32>
      %280 = affine.load %alloca_10[%arg3, %arg4, %235] : memref<1x4x4xf32>
      %281 = arith.mulf %278, %279 : f32
      %282 = arith.addf %280, %281 : f32
      affine.store %282, %alloca_10[%arg3, %arg4, %235] : memref<1x4x4xf32>
      %283 = affine.apply affine_map<(d0) -> (d0 + 2)>(%c0_0)
      %284 = affine.load %alloca[%arg3, %arg4, %c0_5] : memref<1x4x8xf32>
      %285 = affine.load %alloca_9[%arg3, %c0_5, %283] : memref<1x8x4xf32>
      %286 = affine.load %alloca_10[%arg3, %arg4, %283] : memref<1x4x4xf32>
      %287 = arith.mulf %284, %285 : f32
      %288 = arith.addf %286, %287 : f32
      affine.store %288, %alloca_10[%arg3, %arg4, %283] : memref<1x4x4xf32>
      %289 = affine.apply affine_map<(d0) -> (d0 + 1)>(%c0_5)
      %290 = affine.load %alloca[%arg3, %arg4, %289] : memref<1x4x8xf32>
      %291 = affine.load %alloca_9[%arg3, %289, %283] : memref<1x8x4xf32>
      %292 = affine.load %alloca_10[%arg3, %arg4, %283] : memref<1x4x4xf32>
      %293 = arith.mulf %290, %291 : f32
      %294 = arith.addf %292, %293 : f32
      affine.store %294, %alloca_10[%arg3, %arg4, %283] : memref<1x4x4xf32>
      %295 = affine.apply affine_map<(d0) -> (d0 + 2)>(%c0_5)
      %296 = affine.load %alloca[%arg3, %arg4, %295] : memref<1x4x8xf32>
      %297 = affine.load %alloca_9[%arg3, %295, %283] : memref<1x8x4xf32>
      %298 = affine.load %alloca_10[%arg3, %arg4, %283] : memref<1x4x4xf32>
      %299 = arith.mulf %296, %297 : f32
      %300 = arith.addf %298, %299 : f32
      affine.store %300, %alloca_10[%arg3, %arg4, %283] : memref<1x4x4xf32>
      %301 = affine.apply affine_map<(d0) -> (d0 + 3)>(%c0_5)
      %302 = affine.load %alloca[%arg3, %arg4, %301] : memref<1x4x8xf32>
      %303 = affine.load %alloca_9[%arg3, %301, %283] : memref<1x8x4xf32>
      %304 = affine.load %alloca_10[%arg3, %arg4, %283] : memref<1x4x4xf32>
      %305 = arith.mulf %302, %303 : f32
      %306 = arith.addf %304, %305 : f32
      affine.store %306, %alloca_10[%arg3, %arg4, %283] : memref<1x4x4xf32>
      %307 = affine.apply affine_map<(d0) -> (d0 + 4)>(%c0_5)
      %308 = affine.load %alloca[%arg3, %arg4, %307] : memref<1x4x8xf32>
      %309 = affine.load %alloca_9[%arg3, %307, %283] : memref<1x8x4xf32>
      %310 = affine.load %alloca_10[%arg3, %arg4, %283] : memref<1x4x4xf32>
      %311 = arith.mulf %308, %309 : f32
      %312 = arith.addf %310, %311 : f32
      affine.store %312, %alloca_10[%arg3, %arg4, %283] : memref<1x4x4xf32>
      %313 = affine.apply affine_map<(d0) -> (d0 + 5)>(%c0_5)
      %314 = affine.load %alloca[%arg3, %arg4, %313] : memref<1x4x8xf32>
      %315 = affine.load %alloca_9[%arg3, %313, %283] : memref<1x8x4xf32>
      %316 = affine.load %alloca_10[%arg3, %arg4, %283] : memref<1x4x4xf32>
      %317 = arith.mulf %314, %315 : f32
      %318 = arith.addf %316, %317 : f32
      affine.store %318, %alloca_10[%arg3, %arg4, %283] : memref<1x4x4xf32>
      %319 = affine.apply affine_map<(d0) -> (d0 + 6)>(%c0_5)
      %320 = affine.load %alloca[%arg3, %arg4, %319] : memref<1x4x8xf32>
      %321 = affine.load %alloca_9[%arg3, %319, %283] : memref<1x8x4xf32>
      %322 = affine.load %alloca_10[%arg3, %arg4, %283] : memref<1x4x4xf32>
      %323 = arith.mulf %320, %321 : f32
      %324 = arith.addf %322, %323 : f32
      affine.store %324, %alloca_10[%arg3, %arg4, %283] : memref<1x4x4xf32>
      %325 = affine.apply affine_map<(d0) -> (d0 + 7)>(%c0_5)
      %326 = affine.load %alloca[%arg3, %arg4, %325] : memref<1x4x8xf32>
      %327 = affine.load %alloca_9[%arg3, %325, %283] : memref<1x8x4xf32>
      %328 = affine.load %alloca_10[%arg3, %arg4, %283] : memref<1x4x4xf32>
      %329 = arith.mulf %326, %327 : f32
      %330 = arith.addf %328, %329 : f32
      affine.store %330, %alloca_10[%arg3, %arg4, %283] : memref<1x4x4xf32>
      %331 = affine.apply affine_map<(d0) -> (d0 + 3)>(%c0_0)
      %332 = affine.load %alloca[%arg3, %arg4, %c0_5] : memref<1x4x8xf32>
      %333 = affine.load %alloca_9[%arg3, %c0_5, %331] : memref<1x8x4xf32>
      %334 = affine.load %alloca_10[%arg3, %arg4, %331] : memref<1x4x4xf32>
      %335 = arith.mulf %332, %333 : f32
      %336 = arith.addf %334, %335 : f32
      affine.store %336, %alloca_10[%arg3, %arg4, %331] : memref<1x4x4xf32>
      %337 = affine.apply affine_map<(d0) -> (d0 + 1)>(%c0_5)
      %338 = affine.load %alloca[%arg3, %arg4, %337] : memref<1x4x8xf32>
      %339 = affine.load %alloca_9[%arg3, %337, %331] : memref<1x8x4xf32>
      %340 = affine.load %alloca_10[%arg3, %arg4, %331] : memref<1x4x4xf32>
      %341 = arith.mulf %338, %339 : f32
      %342 = arith.addf %340, %341 : f32
      affine.store %342, %alloca_10[%arg3, %arg4, %331] : memref<1x4x4xf32>
      %343 = affine.apply affine_map<(d0) -> (d0 + 2)>(%c0_5)
      %344 = affine.load %alloca[%arg3, %arg4, %343] : memref<1x4x8xf32>
      %345 = affine.load %alloca_9[%arg3, %343, %331] : memref<1x8x4xf32>
      %346 = affine.load %alloca_10[%arg3, %arg4, %331] : memref<1x4x4xf32>
      %347 = arith.mulf %344, %345 : f32
      %348 = arith.addf %346, %347 : f32
      affine.store %348, %alloca_10[%arg3, %arg4, %331] : memref<1x4x4xf32>
      %349 = affine.apply affine_map<(d0) -> (d0 + 3)>(%c0_5)
      %350 = affine.load %alloca[%arg3, %arg4, %349] : memref<1x4x8xf32>
      %351 = affine.load %alloca_9[%arg3, %349, %331] : memref<1x8x4xf32>
      %352 = affine.load %alloca_10[%arg3, %arg4, %331] : memref<1x4x4xf32>
      %353 = arith.mulf %350, %351 : f32
      %354 = arith.addf %352, %353 : f32
      affine.store %354, %alloca_10[%arg3, %arg4, %331] : memref<1x4x4xf32>
      %355 = affine.apply affine_map<(d0) -> (d0 + 4)>(%c0_5)
      %356 = affine.load %alloca[%arg3, %arg4, %355] : memref<1x4x8xf32>
      %357 = affine.load %alloca_9[%arg3, %355, %331] : memref<1x8x4xf32>
      %358 = affine.load %alloca_10[%arg3, %arg4, %331] : memref<1x4x4xf32>
      %359 = arith.mulf %356, %357 : f32
      %360 = arith.addf %358, %359 : f32
      affine.store %360, %alloca_10[%arg3, %arg4, %331] : memref<1x4x4xf32>
      %361 = affine.apply affine_map<(d0) -> (d0 + 5)>(%c0_5)
      %362 = affine.load %alloca[%arg3, %arg4, %361] : memref<1x4x8xf32>
      %363 = affine.load %alloca_9[%arg3, %361, %331] : memref<1x8x4xf32>
      %364 = affine.load %alloca_10[%arg3, %arg4, %331] : memref<1x4x4xf32>
      %365 = arith.mulf %362, %363 : f32
      %366 = arith.addf %364, %365 : f32
      affine.store %366, %alloca_10[%arg3, %arg4, %331] : memref<1x4x4xf32>
      %367 = affine.apply affine_map<(d0) -> (d0 + 6)>(%c0_5)
      %368 = affine.load %alloca[%arg3, %arg4, %367] : memref<1x4x8xf32>
      %369 = affine.load %alloca_9[%arg3, %367, %331] : memref<1x8x4xf32>
      %370 = affine.load %alloca_10[%arg3, %arg4, %331] : memref<1x4x4xf32>
      %371 = arith.mulf %368, %369 : f32
      %372 = arith.addf %370, %371 : f32
      affine.store %372, %alloca_10[%arg3, %arg4, %331] : memref<1x4x4xf32>
      %373 = affine.apply affine_map<(d0) -> (d0 + 7)>(%c0_5)
      %374 = affine.load %alloca[%arg3, %arg4, %373] : memref<1x4x8xf32>
      %375 = affine.load %alloca_9[%arg3, %373, %331] : memref<1x8x4xf32>
      %376 = affine.load %alloca_10[%arg3, %arg4, %331] : memref<1x4x4xf32>
      %377 = arith.mulf %374, %375 : f32
      %378 = arith.addf %376, %377 : f32
      affine.store %378, %alloca_10[%arg3, %arg4, %331] : memref<1x4x4xf32>
    }
  }
  %157 = affine.load %alloca_10[0, %c0, %c0_4] : memref<1x4x4xf32>
  affine.store %157, %arg2[0, %c0, %c0_4] : memref<1x4x4xf32>
  %158 = affine.apply affine_map<(d0) -> (d0 + 1)>(%c0_4)
  %159 = affine.load %alloca_10[0, %c0, %158] : memref<1x4x4xf32>
  affine.store %159, %arg2[0, %c0, %158] : memref<1x4x4xf32>
  %160 = affine.apply affine_map<(d0) -> (d0 + 2)>(%c0_4)
  %161 = affine.load %alloca_10[0, %c0, %160] : memref<1x4x4xf32>
  affine.store %161, %arg2[0, %c0, %160] : memref<1x4x4xf32>
  %162 = affine.apply affine_map<(d0) -> (d0 + 3)>(%c0_4)
  %163 = affine.load %alloca_10[0, %c0, %162] : memref<1x4x4xf32>
  affine.store %163, %arg2[0, %c0, %162] : memref<1x4x4xf32>
  %164 = affine.apply affine_map<(d0) -> (d0 + 1)>(%c0)
  %165 = affine.load %alloca_10[0, %164, %c0_4] : memref<1x4x4xf32>
  affine.store %165, %arg2[0, %164, %c0_4] : memref<1x4x4xf32>
  %166 = affine.apply affine_map<(d0) -> (d0 + 1)>(%c0_4)
  %167 = affine.load %alloca_10[0, %164, %166] : memref<1x4x4xf32>
  affine.store %167, %arg2[0, %164, %166] : memref<1x4x4xf32>
  %168 = affine.apply affine_map<(d0) -> (d0 + 2)>(%c0_4)
  %169 = affine.load %alloca_10[0, %164, %168] : memref<1x4x4xf32>
  affine.store %169, %arg2[0, %164, %168] : memref<1x4x4xf32>
  %170 = affine.apply affine_map<(d0) -> (d0 + 3)>(%c0_4)
  %171 = affine.load %alloca_10[0, %164, %170] : memref<1x4x4xf32>
  affine.store %171, %arg2[0, %164, %170] : memref<1x4x4xf32>
  %172 = affine.apply affine_map<(d0) -> (d0 + 2)>(%c0)
  %173 = affine.load %alloca_10[0, %172, %c0_4] : memref<1x4x4xf32>
  affine.store %173, %arg2[0, %172, %c0_4] : memref<1x4x4xf32>
  %174 = affine.apply affine_map<(d0) -> (d0 + 1)>(%c0_4)
  %175 = affine.load %alloca_10[0, %172, %174] : memref<1x4x4xf32>
  affine.store %175, %arg2[0, %172, %174] : memref<1x4x4xf32>
  %176 = affine.apply affine_map<(d0) -> (d0 + 2)>(%c0_4)
  %177 = affine.load %alloca_10[0, %172, %176] : memref<1x4x4xf32>
  affine.store %177, %arg2[0, %172, %176] : memref<1x4x4xf32>
  %178 = affine.apply affine_map<(d0) -> (d0 + 3)>(%c0_4)
  %179 = affine.load %alloca_10[0, %172, %178] : memref<1x4x4xf32>
  affine.store %179, %arg2[0, %172, %178] : memref<1x4x4xf32>
  %180 = affine.apply affine_map<(d0) -> (d0 + 3)>(%c0)
  %181 = affine.load %alloca_10[0, %180, %c0_4] : memref<1x4x4xf32>
  affine.store %181, %arg2[0, %180, %c0_4] : memref<1x4x4xf32>
  %182 = affine.apply affine_map<(d0) -> (d0 + 1)>(%c0_4)
  %183 = affine.load %alloca_10[0, %180, %182] : memref<1x4x4xf32>
