// -----// IR Dump After SodaKernelOutlining (soda-outline-bambu-code) //----- //
#map = affine_map<(d0, d1, d2, d3) -> (d1, d2, d3, d0)>
#map1 = affine_map<(d0, d1, d2, d3) -> (d0, d1, d2, d3)>
#map2 = affine_map<(d0, d1, d2, d3) -> (d3, d0, d1, d2)>
#map3 = affine_map<(d0, d1, d2, d3) -> (d3)>
#map4 = affine_map<(d0, d1) -> (d0, d1)>
#map5 = affine_map<(d0, d1) -> (d1)>
#map6 = affine_map<(d0, d1) -> (d0)>
module attributes {soda.container_module, tf.versions = {bad_consumers = [], min_consumer = 0 : i32, producer = 1482 : i32}} {
  memref.global "private" constant @__constant_5x5x1x1xf32 : memref<5x5x1x1xf32> = dense<[[[[-0.239178866]], [[-0.059307158]], [[0.288950384]], [[0.192838907]], [[-0.283192754]]], [[[0.313829422]], [[-0.313896388]], [[0.070874393]], [[0.316426694]], [[-0.345702201]]], [[[-0.331886679]], [[-0.10094142]], [[-0.193157896]], [[-0.034132719]], [[0.191257656]]], [[[-0.155271932]], [[-0.246177018]], [[0.100440174]], [[-0.321060359]], [[-0.31916821]]], [[[0.106153876]], [[-0.0650999844]], [[0.148521215]], [[0.00141245127]], [[0.283571839]]]]>
  memref.global "private" constant @__constant_1xf32 : memref<1xf32> = dense<0.000000e+00>
  memref.global "private" constant @__constant_1x256x8xf32 : memref<1x256x8xf32> = dense<"0x049EA53D2C60CC3DAAFB183E96A1023E4E05043EA061D63C06C6DEBDD009CC3C087FE83D9003DEBC300A1A3EA64550BD60560B3DA4B396BD290814BEEE43953D382B123ED63045BDA02A083C00BBC53C96F205BE3CB1DC3D603568BD1C7594BDDE92C5BD701DBDBCD256CABD1C9E0CBE30FDBA3D32EBBCBD08D3BE3C3A60CABD6E93B0BD829504BD3E1221BDBEA6A53D6EFA70BD741211BEEA78F3BD00E227BB1E84E4BD7443DFBDECFE3C3DBEECBEBDEE9A80BD3002AA3CAD0C11BE202C133CAC5B973D80DF6DBC48D3043DF8CDC6BD76C036BDCE4D833D97BBB1BD4F2014BEC8EAE5BDCAE48FBD18DDB6BC500AE83D7025583DA87D943C7C1D463D507B2BBC8035AABBE8A780BC32343EBD9C4416BEDBC015BE06AB72BDF24280BDBE54DBBD2E9A0F3E1823CCBD0C634B3D3A7A01BE10F5983C4C8B403DBE6D0BBD90DEABBCC00F473D3E7BEFBD80EC763B78D8773D006DDF3C25E805BE9C518C3DD47CC1BD7807933D66C285BD88C90F3E9E76893D00FC52B9E01BAC3B92CD11BE983DCF3D862BE2BD6841113E70DFC0BCE995E6BD72EBCA3DFA8300BEF06D17BE006C053EB817613D3A170ABE006DA6BAA861133ECB4603BE2892AABC8DF287BD6C36B63DDCF6E03D10B4CABDCCFC8F3D0048AD3C10D20D3CE71098BD7CD5483D18B618BE2695FEBD90DE0C3D74CD4B3DE21C75BDC6CEE0BD628702BE6E3C003E48308D3CC4C05A3D96F80ABEC04AD73B28F4BC3C0411203DD8E5DB3D74EE1FBD4C867E3D1825923D50A4163D07D4DFBD4A4E0F3ED8E3B83C3CA60D3E07E011BEB80F5B3D4CED54BDC2C3883DF8336B3D6A1190BDBB968CBD0CF97A3DD864A53D8E95DFBD5B4AFFBDE40F19BDE23F183E70C013BE7654BE3D5058CD3DF839193E3872873D5396C9BDA0EC083E760DC23DAB9893BDF864CE3D8C3B193EE61B0A3E900E1EBD2621A43DC82ECB3CC05B1FBBA14619BE389FF03D9CC2E83DCBBEFEBD50162C3D58E2F7BC462ACABDDC6D523D93F796BD9E8BAB3D2290BC3DC4B60F3E80EFB13C100A363CFA3DC63DA072483D9A2C0CBD5EEC15BE3C12783D5BA301BE72CDC03D81BA14BE4EF9E9BDA403B8BDAC9E3EBD732000BEFA1DA13D8846E53D949DC9BDF95BC4BD141E873D28C8B9BD0673853D1FA7CCBD5009C83D64661B3D989C523D0059313B50A10B3E180AE53D9D6AD7BD24B06EBD6C03763D36B7C13DA64D06BECC5A92BDD4A4DABDDB55E5BD88FD47BD0A1739BD2C9EFDBDF607D5BD40433B3D28EDC8BC9A040CBE445607BEA05EA1BBA5A908BEB2480CBEAAADC53D280557BD421AB8BD2879F93C3EF6E5BD6875353D54E7433DB8FDF23C64BE913D8847023DE8C6193D2E0AC93DC271BABD2855E63D44AD3D3D8C4000BD807FDC3A401DE4BC3A4B0F3E216911BE5CBBB03DD84F1E3D9A92E9BD3483C23DB40602BEFE5900BE5CB0173E4C6B17BE8CBB253D4ABCBDBD18429DBCC87DE93C1E4718BD2A07013E3C78803D001657BB5CAC92BDC078523DB89074BDC0DD73BB5FD193BD4F6790BDE830A43D8EDD85BD40EC27BBD02F173C4070CEBD02F683BD542719BD8405D03D5E97BABDB4DAC73D0D9D01BED481B03DC04CF2BBDA568EBD382AFBBD2B9905BE3C3D133E08BFC4BC84A7EA3D60BCA93CA8B9C9BD10D0A43D20117FBC6BCDEBBDA4180FBE5CF3333D1524FFBD9EB011BDBDB8A5BD0807133EE8A58F3C4477903D986DFB3C603DE43D1CDBA5BDC0AC6ABCFCA90C3D8070DDBCF8AB28BD68A2B63DE6B503BD7CFFF33D20580ABEA0DF99BC642E623DF4B2E8BD6086523C3192B3BD5099503D2CB6E73DBCF5FA3D1714D2BD00180C3E28E399BCE03AF6BBF6210C3EC665843D9410C73D2E0F0E3E0243EEBD80AFD13DC31E92BD2051A5BC564C51BD3598BFBD08F8923C8CE6DEBD166DAA3DE490FF3DB0A887BC60FA3CBCC22608BE664763BDC4DD10BE8AA371BDCA0666BD5CBBFCBDE085FB3D189CCE3C3046FB3D16CD983DF89F8E3CD0141CBD1D1DD1BD661D973DD21E69BD6805E63DA026D43BD0C2E03DE35381BD90FC77BCB6760A3E6C9818BE22E175BD2BC9A3BD6EB2E0BD1CC2153DC4B414BEF65ABFBD8476773D00A8B7B9C8DB99BCF00C2B3C7442DFBDD0EDEE3DA85ABE3D1099F3BDE2B44DBDC6AE18BE687826BDE8E5D23D8D3D03BE9090553D24BDDD3DC08208BD98A505BE4A93173E1D63CDBD98F330BD58CE973D7A0A853D7852A53DB047C8BC2415DBBDD51AB3BDBC1416BE148015BE1202BDBD41F695BDF9699DBDE26E35BD7E91973DA0A3613DA017013E004F47BB3CE418BE98ECF63CA211103E2E18153E22942BBD1C183ABD88468C3CD87FD6BCE8C8FBBD84E0F23D7C41B43D80F4ECBA34F8DBBD4E12B93DA045D33C13BF95BDFF52DEBD26E5DCBD58D1A0BCD8693D3DC00A663C6212AF3D6A66B33DA683973DCC258D3DA004BABD782B063ECA7E5DBD88BCE03DC04B42BCCCDEBC3D3CF803BD2E9AC73DC422073EC9D189BD5041033E29B613BEA4D991BDE020D7BB6239C9BDE0953C3C3E1B45BDFE2F193E884F01BDC0AF3DBC8066C23AAF23B1BDD0CC733D4ED4AE3D9C585BBD7802B93C1AE5BB3D88ACF53D2CF542BD90C76C3C443783BD60E967BC9E00C53D18E0623D267998BDFCF8343DE7DA87BD8C42E13DF53C16BE00029C3A9AE0E1BD151D92BD8D6EE0BDD3BBC9BD301CE93DB658C3BDA0CCB2BD40A7673D83CB9DBDE4C8A73D4C6A203D64A089BDAC4BC3BDE89245BD391703BEA0D387BD90CE073D74B0E0BDD43279BD7A4BE6BD3E39EABD22C2BE3DA048BDBD0028C2BC071BA4BDE9B994BD803F28BC364A90BDA8FDAE3CF4CB083E064E9CBD90DB783C8018483C3062E6BC18ABDD3DE800303DE63615BE20905F3D1063803CEAE9C83D243566BD10942D3D7EF7883DD20864BD98F8C63D8C5F9C3D4434EC3D140E3D3DACB9EF3D5258033E986DDA3D2018643DF0F37C3D106124BC7E1C06BE3C40063E3E22053EDDD584BDB8CFFCBCFA92A63D6651C53D30491ABE12BCC13D7F6D0BBE064000BDB02215BE16594EBDB48903BE62FA3BBD58BF183D00C1A73A4832663DE84155BDAAD7F3BDE37D17BEF0A7083E4ABC74BD1826CB3C4C903FBD38BF0DBE212100BE7CFBB73D627D0F3E7010053C68B83ABDECC4043DB871C5BDC48F343D80C3C3BDDC39E53D98749A3DF8F3F3BDE04931BCF0A1A43D50D0953C64971FBDFD450EBE24930F3D298CCFBD47C8ABBDB6C1103E0C99C33D8800063D007113BB8374A0BDBC86F53DC86CFDBD35B710BE1C02543D2EE78DBD377DE1BDE0F0C53BC37A05BE48EE4D3DE039903D9CB1D03DA0929DBBD4A8D83D72BA053E666B5EBDB0478F3D0E72DEBD7E1354BD8A4FAB3D4F4DAFBDFAE195BDC7030FBEF0D373BDCCB6213D10D1B63D0D99A0BD7978BFBD301BA63CF88CE3BC849DF63D0A4F09BE37F9A0BDC08F373D001D953C9522DCBD98E1AEBD78EEA33C8E2464BDE80DC83D90CF323D6EC647BD174CB2BD2A10BBBDAD370FBE288872BD8C89F63DC03329BCF0571A3D6685003ED44816BED00E0BBC40E410BCB4C402BEA8EDCA3C94CF88BDB2AAAC3D6097083E2C2A183D267F883DB442FEBD4CC0F13D46BBAB3DD614BCBDF294C63D8877953C40F8333BB7EBDFBDC2FE00BE2CA53FBD46D3F1BD7216C03D9AAC083EBA01B93D546C293D848D143DB878B53DF445B83D909AC7BD64D4CFBD7C43163E80761FBCA7DC99BD10CAFDBD4A82113EC0F505BCD1B587BDD829CEBD360D0E3E5446A3BD60CBAC3BD839CC3D7819AF3DE872C4BD6A2B2ABD1870B7BD3C9AD63DE8A104BD0B4886BD04D0203D80E3CF3B9E56A6BDF40CC2BD9AF7DDBDDA2EE7BD388AF43DE6869DBDC8A9F53DCC6E743D058C11BE28268DBDACA4193E50E0D83DB443B2BDE851953C8899E03D007385BBDA5C87BD684BD0BC4CAF1ABD3071B43CD47A8D3DC00FFA3C003A74BC31CD0CBEF4EFD53DB82081BC571119BE54BBECBDBC5EEEBCB6558A3D3AC6873D7E3F873D78FCDEBCAEEB32BD44980D3D2E053FBDE889D63DF796B6BDD26021BDA284CBBD9E1076BDE0C59F3B48A4E13DD24F74BD0C61E03DAD3EEEBDB0F6A8BD2C230F3E549636BDA0F541BC4007563CC0E0163E981FA5BC587E95BD560C10BE40CE4FBD1C1D8D3DB4918E3D9C00E4BC2CCDED3D6A15B03D4C72F83DC0673CBDED3EA5BDC0F13DBD627DB9BD10E92ABCD7380CBEFC30C3BD5440313D9EB3003E008F59BA627385BD6CD249BD647A953D4C27FD3D40B6593CCC9A063D20F516BE6CCC3C3D8CF1DA3DBEC5CCBD44C91A3D80CC373DA69D093EEA1FEBBD18F2093EC41E773D68C796BC8002E2BBDA8604BD4C2E633D04FEC43D74D30E3D1499C23DFE9FD3BD27569FBD04CF383D5927D2BDCABFDFBDBA474BBD0260A03D0448EB3D28EB0E3EA2B4093EA0E24B3D5C98F83D2D5F02BE3048193E78E6EF3CAAB1053E06AA8A3D663EFABD681D083D475E12BE603B7C3D1062433D803DAABCA06DA0BC2C52E83D40FE313BE801C0BDE7B4A0BDFFC30DBE4825C2BC666BF9BDD48E5E3D8C2CC63DE431943D050215BE46D795BD98F4FEBD94E315BD3011543DD0996F3D8665CBBDECC9073E92CA073E567D093ED85EC83D88BCE83C1C76763DF20A823DAA3E4ABDE81D073D40DEDE3C389705BECCC0EDBDDA5618BE362FCBBD40513CBC6CB391BD20DD0CBEBFA204BEB619BABDB82AD8BC18866B3D8053873A40992A3BEC8C0D3D4842D63C432915BE90FDA7BDE477E43D3A9EF1BDB0034C3D0A7CF9BD3CCA62BD3C3F693DE84DABBC42750E3E802F01BDC016BEBB6A53B9BD609BB2BC2CAD0C3EA864CCBD0CAED73D007FC0BA7034633D608FD23D6C5B143D68AD093E5026F13DC063483B92283FBD508A173E8EB6AF3D749FC23D9643093EB0BFE93DB8FD09BE5401803D402D63BB2017183E1444F4BDC212CCBD70F271BC382DCC3D259711BE6AFAE1BD80B364BCFA44A53DF048743CA6EB97BD6039053E88B0A6BC0CEB073EA4D909BE505821BCD73C81BDA4404BBD0E14093E24DA7A3D006A173C5C73EABDF07C833C1E1C66BDCE5D823D80DC093D2D54A0BDDC02CE3D0072C7BC818782BDB82493BDDC4ACB3DD4CCE93DB2B5AABD642B9D3DD4C362BD30E3B7BC3D91FABDCA18DFBDE225A33D231F16BE8C4E35BDD1C591BD9C68073E81C0B9BDA41D013E70E1D53DBAC15DBD7602C4BD705406BCD0111F3C52F42BBDE0D89F3D6A2F093ECA789F3D900DEC3D5E5434BD30B87B3CA9E7B8BD1094173DA82B9CBC45D580BDFE59183E48F0B4BD6800A63D5F8983BD7549B6BDB0A8593D264372BDCE52F8BD4CBDE43D56090E3E4886D53D78E99B3C64F0303D88521FBD9E0D03BD0C7C973D54AB3ABD4C153EBDAB0503BE5EBAB43D13D58FBDA873893CC070D73D2730B7BD105F303DAD6FAEBD06DDF5BDD4D05B3DC4E0693DB0895A3D664503BE4084A43CFE2FB2BD16D90F3EAB5C0FBEF065A8BCF0E5CE3D549DE33D29FD9BBDF403ED3D3E86BDBD2E27C13DDC085DBDB46A4D3DA6ADA9BD0416DD3DEC898F3D00A2B039E5D707BEBEF8023E28C340BD6EB9EFBD591597BD007A2EBBC833F6BCCE359C3D88C3C93CE0ADBABB40E2A3BD5E828E3DC09463BCD627123E7A0A23BDBDEF84BD2B94C5BD94D8DABDFCD5AD3D94675F3DB499D5BDE05D1BBCE0B014BEE3EF17BE478917BE4060EB3D56FD02BD100224BCC4C965BD40CFDABD4805E93C46320C3E5C9F39BD5CAF69BD60F5F0BC44B5DE3D7CDC253DF770C4BD1CDCDC3DF61615BD7C3A45BDE19CF7BD0982D6BDC21DF9BDC261063E8029D83C923CA53DA4420C3D045FB43D2842A73D80D8ADBA50B7B7BC7ECBD6BD258794BD042A26BDE2A5C63D6006583DD0FAAD3C92B85FBDE44C053EDB4A9CBDC031B8BC2C25B03D0AB6A13D16000FBE4CCB493D8075713B001443BDFC2458BDAE99AC3D1595CABD40BC5ABC93A107BE1FF314BEA226EFBD248A4D3D260BC4BD40398C3C709213BC5ED0AE3D82C30DBEFF5F19BEF65C013ECEB0CABDF15BF8BD7431DD3D4EE337BD10E006BD62FC17BE9B04C2BD977DE0BD30BA7C3DA4B1153D9A840BBE0AA6043E748080BD4C6AE93D924517BED01F28BC980D8DBC9CEB4D3D6B5D16BE78082D3D68EAABBDDCDF383D6EF46CBD50F7F33D30338E3C8056693C12A8EDBD82C37EBDE89B903D0E2CAA3DE3E704BEE62C053E506570BC98C3143E20A6E1BD56015ABD5836003E60BFB4BCE8E1E4BDFAE8873DA2C70C3E44AF543D7DDC0FBE9C6414BEF45687BD10A7EE3D5007873DCA80C3BD9C88DB3DC03A643B28B7A2BCBCCD2A3DAB70EDBDE4F4E73DB4C7123E067302BD90ED15BD940E143EC4DFD83D2C900C3DD00BB83C5A140DBDA3F4B3BD242450BDF0A1A03CDF9989BDC02AB83BF0A98DBC8258A83DD06BDABCBEB3DCBD5C92D0BD36CF053EB0BC5BBCC4730F3E3054273CEE2F7DBDB5B3C2BDE0EFF03B60B1E33C002F4E3CB4CCF6BDD4CAEB3DC60D0C3E636516BE9E80A33DEA6917BE6E13A43DE6F407BE60A80F3CC04AD7BB3CDEDA3DA05336BC9846EEBD608062BC900E623CC4E662BD702A823CDCB6013E4A68093E849A1F3DA87FC9BDF0FDF2BC7EEE843DC2A9C3BD6004E2BBFC8C923D896D0FBEECBBCE3DDED9A6BDF816E13D1CAB023E88573D3D4ECE6DBD06B28D3D10B0043E92FDC9BDE810803CA42367BDF8BFDBBDACB9F6BD2037E8BDF8DF983D968A093EB8F5CA3D60E3CF3D9803193E6160DFBDFCADDA3DCDB0C9BD76EEC9BD44EDF93D74DBD7BD1F0985BDF87DE0BDCE29893D89DB08BE705BDD3D10D4B63DBC8F693D90FE853CBB3315BE36AD033E40B6DA3D493C99BD0073013BC08DFF3DF24FAF3D3AFC043E34E7703DE41DF93D452704BE3E64BB3DFC826EBD8084BB3BD8BFC0BCA0CADC3DE62031BDF622B73D5E6EFFBD80361E3B88D4DEBD908D9B3D5275C4BD2E1408BE2836193E12DD913D223D1ABDCC26583DD42CD9BDCC58043D26B0B23DA801AABD00FC9BBAFC38AABD33340EBE36A524BDD6D9BD3D14DA133E0CAB4F3DC89FBCBCA658A4BDF4E9B53D2C30F03D403F7F3C9C79E9BD4896D03DE004BB3DAC12F33D6821103DD86AB6BCC4D4D03D2CEC9E3D9C55C73DD8061B3D1ACF18BE70B653BDD2EB23BD3AF70C3EB09609BE006397BCD094483D38565A3D2090903D60B828BC50449BBC99CD07BED6F393BD1C28B03D6C58783DC244813DFE6D113E50EE11BEFCF8FF3D5C2895BD60D0053EECB1933D20CBB93B404F1E3B1041D23C80798BBCD09A053E6ED40CBEA4F6F73D38B2A03C217088BD5DF7FDBD5490733DCFECB0BD44743E3DC8DF4ABD3881CF3D0EAE27BDBEED973D9AE08B3DA4CC5EBD920EA53D44DAB03DD8DE1BBD000901BC1E32FDBDDEB690BD780FED3D78B0E8BCF0CFA6BDBCC42C3D82C8B5BD12613FBD61610BBEC0AFB23B4054033B9E66C43DB2D302BDF620B73DA8FC7B3DBC5413BEA099473D0CC54BBD8C7BEF3D68D9D83D90FA79BC7420CABDA060CF3CA8EBD83D90848ABD284FC4BC34DAEC3DC01748BBB0F601BDBCD9FCBCD87B04BE0553C3BD8900B9BDE9129DBD20060B3E34F3B3BD6017463C9C79653D9EF4073E1EBEBBBD1405883D58BAC43DDEAA133EA4B4833D7A5735BD0A10DCBDE0A8703DB527D2BDCA01C83DF882F73DC0E482BB08D411BE306DB53C40587B3B5CE555BD30AC97BCF0FD4E3D8557AEBD80BD863BBED4C13DCF98E4BDD82F863DD219033E0845CFBC3891E43D34A3543D28D19EBC76A21BBD92073ABD1C0ACDBDACEBDF3DE5920CBE16B204BE049B783DB028503C9015C4BC1432363D62F6CCBDEC90893D6039C93C2EE6073E1E68B5BD88AFE13D9110C9BDD8ACBBBC7241EDBD74BA153DC453483D46EA04BDB4DE233D4CD8AB3D9201933DE460043D6412D03D80F19EBBF42F0C3D0CC2DF3D842B413D7A96043E00D8D83A1A4DB83D2410403D8617DDBDDCFE933D0841963D10DC6BBDE52BD4BD274C15BE6076DE3D740A03BDE4F8CD3D4EB4C03D876816BEA0C99CBDFEDB013E0077FF3D80309BBCA8914E3D1499AD3D100638BC0C40CE3DC4F446BDFC5B773D249DBB3D68AA9DBCBC99183E3F780EBE04D4443D755202BE0003923DBAF98D3DFEAC78BDD61515BE72B481BD8010593B780C063D8862DF3D7E7F80BD34261A3E46590A3E90B193BD8AEFC13DB8C0CEBCC03F0B3B44B8F03D244E7A3D80E1823B5080103E4073D0BDF0AD2E3DA90308BE20B8913CC631043E4F1D89BD40C6BB3CD0190E3E5232B7BD0C29E63D9D7E12BE041B69BD9637BD3D4BDB0BBE18639F3C50B14BBCE02ECD3BF061F93CD8E5CDBC00E0CFBD0CAF19BDD85E5C3D68A1DEBC6E6EA43D225219BE06100C3EC0B5CE3D42A93CBDFF78F6BDD6AE96BD9E9ABDBDC652C4BD5CE35E3D0C4CF6BC001E6F3A8CE26D3DCC91653D2F50ACBD18AFF6BCD0B3EBBC38EFFD3C0EC233BDC12019BE80B2C5BB382AFCBDC8B7A1BC3874F1BDD06701BC066F82BDF4702ABD2C7D083D8C9BF33DFC09F53D00A9C83D73CD92BDE5CAC6BD8637A53D7AD5A63D068736BD80441EBBE432943DEC00F53DB02728BC6619A03D40466D3D5A0E9E3D8C631EBDE25271BDF8FA7FBD00AB8F3BE1AA09BEE484DABD10C1FEBC9EB5063E09990EBE16017FBD04668C3D74146E3DFC3809BEF870CE3C8CC6D83D80FE503B2403083EC54CB4BD8490173E10B8573DDBC6A6BDD7AFEFBDF0CEF93DB4846B3D801C603C2CE0023D387BF33C244A7CBD4004143E423B103E9A1FE3BD0098E23D7033073E34BC413D74CC053EE8319BBDC01A14BD447B3FBD442C9A3D2823FF3DA4C1313D68387BBD60AC633CA05998BC5028313CC0CD36BCFCEA9F3DF0E1613C503F7D3D7C61263DA8B4103E1CF8913D30AF56BCD35C08BE008CE53908619FBCE40EF73D40ECEEBD087BA4BC1EE22BBDD022CE3D30AAA63CBA217FBD30F30A3E20BAAC3BA0D7C3BD902AED3DA0F00EBDC0A8B3BD521DA1BDFCFE463DEBB109BE327CBA3D2609183E9ACA3FBDA40A02BE1C6C083E00167BBCF4E6A83D96F4AD3D6059D2BB00834F3C049519BE40542BBCA8A8E03D0DEB91BD1832113D6C13FDBD00D82139EE730EBE0226B63D5C39FABC50D90ABE6AADDEBD0076743A6ACD56BDF26D4BBD966E013E6ACEC43D406E423C80C83DBC8CC8A5BD67A704BEA4B3613D80B9793BD48CD2BD8863FEBDD47BB6BDCC6EFE3D786C863C60153DBC00C86FB960A5443C1069B4BC94FDD53D1E739F3DC864B6BD34AF0D3E10D55B3C7B6A19BE6687ACBD241ACBBD48DC26BDBCCCF23D74550C3D3801EC3D3EF4D0BD40628CBDCDEF08BE2E10C63D160E4CBD60EC0B3E88DF2CBD108CFEBC8E96A53D8DD4FABD90750FBCB2A90F3E7022CF3C4C9A053E8E48F1BD008E11BCBECEDCBD501C1C3DDD2AEABD527A36BDD02A843DF4C86F3D9FDD0BBE9E9ECABD325618BD2081D23DBEFA78BD50AE643DA03ABDBD8A3507BE680E39BD06D756BD64F202BE14CD2B3D602A063E0CDB283D9C10D4BD30D901BCC0D7FE3CB0B6D63D6CE1003E06B540BD700FED3CBCBD713D747C6F3D72C7F5BD4E9107BE60D0C2BC022935BD487D15BEB0D3CD3DACB6503D5698B53DF0B7BBBC20EB81BC82BD013EF0DFBCBC58BD82BCD03F0A3D7E3381BDC680C23D148E01BE1CFF063E70D5D43C94A4803DD4516F3DFED90A3EBACA18BE20207B3C5051F7BD589702BED47FAFBD8CB44FBD28A3E6BCF075EF3C38408E3DE4B737BDB282AF3DB06814BD66546CBDB0B86F3CA4303F3D50EA133D2050143DD282ACBD54F975BD18ED043D955B13BEA2C7B13D3E4106BD24C9763DAC06C0BD14F4DB3DDF3A85BD38040B3D8431283D810007BEB1959EBD8A2A043ED4C1E23DD0FFD13DC9ECAEBD3C94FC3DE9DF19BE8A50A1BD4074053B7105A0BD081FD83D961425BD0AB4BF3D9419AFBD2CD65E3DF6BE19BE39DFD7BD352103BE74D19F3DFE9E24BDA8003D3D9C1BF23DBC75EDBC9B6597BDC446193DF00096BC8811ACBCE45282BDACBC5DBD803E7CBDA09CAA3C46DD0F3EE81EA03C484A373DC4569BBD087E0B3DC0DA06BD08E482BD531F16BEA0CDDE3D044B1A3E6F020CBE6889E13DE021E63CE061DBBBA85C273D924D013E0AF79BBDA94F0DBEC43E3B3D3FE401BEB0EBBD3C605683BC729E193E18758CBD36B5853DA03ABCBB9C5BDE3DCA87093EB8286E3D00EF7A3AB6DE4DBDDED4A23DB60B933DFC85A43D600EB23DCFCBFABD983EE1BD38C4373D9A92003EE460453D48DAB4BCECE7D33D80412DBB867AAB3DACA1DD3D34EEE63D966718BED023353C3AA706BEE8B3DD3D6201B93D3E23193EB02A793D3C1119BECC67D33DFC0A053EF050ED3D40EA9DBCF134B0BDD07604BE7EF2053EEC7E093E3CEFE53D30D83BBC9EE5093E8ED9C6BDD206D2BD8ABE12BDCF460BBE49F612BE60D04CBC5FDD16BE7001743C2B9E04BE3093C43DD415F03D60A1CCBD00CB663BE241103EBC55893D046CFFBCB448F0BDB24A0B3EA0759C3B0FC7FABDFCED8D3DD612B13D6C6CF2BDCC19F03DC4FC5EBD2C22D63D30D3B8BCD828B8BC1A0E56BD205A8C3C2CEDEDBD047DD3BDBC36CD3DF4252C3DF454E83D3058FBBC840DDE3D489C08BE26C37FBD78BCA93C2CF50F3D66B8E7BDF449B73D40D197BC63DD07BECC3AD3BD084298BC0B8A9DBD0012143A00C9723B22CC0C3ED480FD3D7CCE923DC23A8E3DB0374A3C369A38BD92B900BE7406F3BC282ED43D22082FBD6B5495BD4C9CBF3D5C4922BD10CD84BC9B89CABD10D6203C582F8BBC00B0B6BBA6932DBD201FECBDC08B3DBCAE96073EB80F3E3D90F5DE3DB030323CDE83BB3D18BE793D7AF714BEC056F13C5A57083E1AB2053EDD9213BE1220A13DC4DBCABDD085D9BD207B2DBC603B2C3CEDDB14BED881953C78F31A3D403EA7BB6C40063E1698133E8EA592BDA480A73DFC09E3BDE011563D20DBC5BCEE60BABD7020123D40BAFF3BE002FB3D08EDE63D84B8953DB8564EBD8046B93BC0DE013C48F85CBD303B523C700581BCA67D82BD04499D3DA4568C3D86FAC13D207D083C5747D8BD6C690F3D880CF93D2F430CBE38AAFFBD04850CBE7265CABDAE4C8E3DD61109BE7044BD3DA8FD58BD10AA4DBC3943A4BD786ED03C5874BFBDF0D0DC3D0C5D743D603F263CD22E61BD94480EBE7E808BBD0C72113D808459BC94E2C3BDB83F553D58C8933D706A0B3E28CE013E27B313BEB8CD863CE468DC3D18E80C3E55B209BEA342A3BDC497803D32ECAB3D1052823D7A11CA3D90BE4F3CE8E198BC14440A3E900AF3BD90719D3D067A5CBD3044703C352F07BE8027493DBC5B0F3DCEFE043EA80FB53DE60E4FBDE78603BE988FED3CF05048BD20CCB33C4002563CD93313BECAE20A3E20A00EBC00B3B4BA56619ABD2260C43D0007C6BA56240DBED7AAB3BDF6241BBDE855D93DE4147C3DDB44F7BDB2B119BE32FB8F3D78C8DD3CA63DA83DFC3507BECA3614BE6A25B13D36EF76BD6A6482BDBF1D0ABE6117A8BD70D91FBCC8C5B73C203709BCA18D07BED0542D3CEC0D8D3D0066FD393488503D881EB73CD7030CBEA470CE3D3064B73C00F177BB8045B83C5C0E0A3EEDAFA9BD">
  memref.global "private" constant @__constant_1x8x4xf32 : memref<1x8x4xf32> = dense<[[[-0.553162336, 0.484506547, -0.0500785708, 0.181675315], [0.661634862, -0.267243057, 0.239755571, -0.0333524942], [-0.0952668786, 0.595283091, 0.0143252015, 0.618282735], [0.0734405517, -0.578623474, -0.0334805846, 0.0194116831], [-0.662837744, -0.21215862, -0.333795279, 0.541747868], [0.253724039, -2.615330e-01, 0.115942955, 0.103184581], [0.462623656, 0.391423881, -0.66526252, -0.693425894], [-0.365181863, 0.524228394, 0.668026506, -0.660975337]]]>
  memref.global "private" constant @__constant_1x4x2xf32 : memref<1x4x2xf32> = dense<[[[0.147334099, -0.553795576], [0.135106802, -0.970039606], [0.585191488, -0.218065262], [0.381030798, 0.867018461]]]>
  memref.global "private" constant @__constant_8xf32 : memref<8xf32> = dense<0.000000e+00>
  memref.global "private" constant @__constant_4xf32 : memref<4xf32> = dense<0.000000e+00>
  memref.global "private" constant @__constant_2xf32 : memref<2xf32> = dense<0.000000e+00>
  func.func @main(%arg0: memref<4x32x32x1xf32>, %arg1: memref<4x2xf32>) attributes {tf.entry_function = {control_outputs = "", inputs = "x1", outputs = "Identity"}} {
    %cst = arith.constant 0.000000e+00 : f32
    %cst_0 = arith.constant 3.40282347E+38 : f32
    %cst_1 = arith.constant 1.000000e+00 : f32
    %0 = memref.get_global @__constant_2xf32 : memref<2xf32>
    %1 = memref.get_global @__constant_4xf32 : memref<4xf32>
    %2 = memref.get_global @__constant_8xf32 : memref<8xf32>
    %3 = memref.get_global @__constant_1x4x2xf32 : memref<1x4x2xf32>
    %4 = memref.get_global @__constant_1x8x4xf32 : memref<1x8x4xf32>
    %5 = memref.get_global @__constant_1x256x8xf32 : memref<1x256x8xf32>
    %6 = memref.get_global @__constant_1xf32 : memref<1xf32>
    %7 = memref.get_global @__constant_5x5x1x1xf32 : memref<5x5x1x1xf32>
    %alloc = memref.alloc() {alignment = 64 : i64} : memref<1x5x5x1xf32>
    linalg.generic {indexing_maps = [#map, #map1], iterator_types = ["parallel", "parallel", "parallel", "parallel"]} ins(%7 : memref<5x5x1x1xf32>) outs(%alloc : memref<1x5x5x1xf32>) {
    ^bb0(%in: f32, %out: f32):
      linalg.yield %in : f32
    }
    %alloc_2 = memref.alloc() {alignment = 64 : i64} : memref<4x35x35x1xf32>
    linalg.fill ins(%cst : f32) outs(%alloc_2 : memref<4x35x35x1xf32>)
    %alloc_3 = memref.alloc() {alignment = 64 : i64} : memref<4x35x35x1xf32>
    memref.copy %alloc_2, %alloc_3 : memref<4x35x35x1xf32> to memref<4x35x35x1xf32>
    memref.dealloc %alloc_2 : memref<4x35x35x1xf32>
    %subview = memref.subview %alloc_3[0, 1, 1, 0] [4, 32, 32, 1] [1, 1, 1, 1] : memref<4x35x35x1xf32> to memref<4x32x32x1xf32, strided<[1225, 35, 1, 1], offset: 36>>
    memref.copy %arg0, %subview : memref<4x32x32x1xf32> to memref<4x32x32x1xf32, strided<[1225, 35, 1, 1], offset: 36>>
    %alloc_4 = memref.alloc() {alignment = 64 : i64} : memref<5x5x1x1xf32>
    linalg.generic {indexing_maps = [#map2, #map1], iterator_types = ["parallel", "parallel", "parallel", "parallel"]} ins(%alloc : memref<1x5x5x1xf32>) outs(%alloc_4 : memref<5x5x1x1xf32>) {
    ^bb0(%in: f32, %out: f32):
      linalg.yield %in : f32
    }
    memref.dealloc %alloc : memref<1x5x5x1xf32>
    %alloc_5 = memref.alloc() {alignment = 64 : i64} : memref<4x16x16x1xf32>
    linalg.fill ins(%cst : f32) outs(%alloc_5 : memref<4x16x16x1xf32>)
    %alloc_6 = memref.alloc() {alignment = 64 : i64} : memref<4x16x16x1xf32>
    memref.copy %alloc_5, %alloc_6 : memref<4x16x16x1xf32> to memref<4x16x16x1xf32>
    memref.dealloc %alloc_5 : memref<4x16x16x1xf32>
    linalg.conv_2d_nhwc_hwcf {dilations = dense<1> : tensor<2xi64>, strides = dense<2> : tensor<2xi64>} ins(%alloc_3, %alloc_4 : memref<4x35x35x1xf32>, memref<5x5x1x1xf32>) outs(%alloc_6 : memref<4x16x16x1xf32>)
    memref.dealloc %alloc_4 : memref<5x5x1x1xf32>
    memref.dealloc %alloc_3 : memref<4x35x35x1xf32>
    %alloc_7 = memref.alloc() {alignment = 64 : i64} : memref<4x16x16x1xf32>
    linalg.generic {indexing_maps = [#map3, #map1, #map1], iterator_types = ["parallel", "parallel", "parallel", "parallel"]} ins(%6, %alloc_6 : memref<1xf32>, memref<4x16x16x1xf32>) outs(%alloc_7 : memref<4x16x16x1xf32>) {
    ^bb0(%in: f32, %in_32: f32, %out: f32):
      %8 = arith.addf %in, %in_32 : f32
      linalg.yield %8 : f32
    }
    memref.dealloc %alloc_6 : memref<4x16x16x1xf32>
    %alloc_8 = memref.alloc() {alignment = 64 : i64} : memref<4x16x16x1xf32>
    linalg.generic {indexing_maps = [#map1, #map1], iterator_types = ["parallel", "parallel", "parallel", "parallel"]} ins(%alloc_7 : memref<4x16x16x1xf32>) outs(%alloc_8 : memref<4x16x16x1xf32>) {
    ^bb0(%in: f32, %out: f32):
      %8 = arith.minf %in, %cst_0 : f32
      %9 = arith.maxf %8, %cst : f32
      linalg.yield %9 : f32
    }
    memref.dealloc %alloc_7 : memref<4x16x16x1xf32>
    %collapse_shape = memref.collapse_shape %alloc_8 [[0], [1, 2, 3]] : memref<4x16x16x1xf32> into memref<4x256xf32>
    %expand_shape = memref.expand_shape %collapse_shape [[0, 1], [2]] : memref<4x256xf32> into memref<1x4x256xf32>
    %alloc_9 = memref.alloc() {alignment = 64 : i64} : memref<1x4x8xf32>
    linalg.fill ins(%cst : f32) outs(%alloc_9 : memref<1x4x8xf32>)
    %alloc_10 = memref.alloc() {alignment = 64 : i64} : memref<1x4x8xf32>
    memref.copy %alloc_9, %alloc_10 : memref<1x4x8xf32> to memref<1x4x8xf32>
    memref.dealloc %alloc_9 : memref<1x4x8xf32>
    linalg.batch_matmul ins(%expand_shape, %5 : memref<1x4x256xf32>, memref<1x256x8xf32>) outs(%alloc_10 : memref<1x4x8xf32>)
    memref.dealloc %alloc_8 : memref<4x16x16x1xf32>
    %collapse_shape_11 = memref.collapse_shape %alloc_10 [[0, 1], [2]] : memref<1x4x8xf32> into memref<4x8xf32>
    %alloc_12 = memref.alloc() {alignment = 64 : i64} : memref<4x8xf32>
    linalg.generic {indexing_maps = [#map4, #map5, #map4], iterator_types = ["parallel", "parallel"]} ins(%collapse_shape_11, %2 : memref<4x8xf32>, memref<8xf32>) outs(%alloc_12 : memref<4x8xf32>) {
    ^bb0(%in: f32, %in_32: f32, %out: f32):
      %8 = arith.addf %in, %in_32 : f32
      linalg.yield %8 : f32
    }
    memref.dealloc %alloc_10 : memref<1x4x8xf32>
    %alloc_13 = memref.alloc() {alignment = 64 : i64} : memref<4x8xf32>
    linalg.generic {indexing_maps = [#map4, #map4], iterator_types = ["parallel", "parallel"]} ins(%alloc_12 : memref<4x8xf32>) outs(%alloc_13 : memref<4x8xf32>) {
    ^bb0(%in: f32, %out: f32):
      %8 = arith.minf %in, %cst_0 : f32
      %9 = arith.maxf %8, %cst : f32
      linalg.yield %9 : f32
    }
    memref.dealloc %alloc_12 : memref<4x8xf32>
    %expand_shape_14 = memref.expand_shape %alloc_13 [[0, 1], [2]] : memref<4x8xf32> into memref<1x4x8xf32>
    %alloc_15 = memref.alloc() {alignment = 64 : i64} : memref<1x4x4xf32>
    linalg.fill ins(%cst : f32) outs(%alloc_15 : memref<1x4x4xf32>)
    %alloc_16 = memref.alloc() {alignment = 64 : i64} : memref<1x4x4xf32>
    memref.copy %alloc_15, %alloc_16 : memref<1x4x4xf32> to memref<1x4x4xf32>
    memref.dealloc %alloc_15 : memref<1x4x4xf32>
    soda.launch_func  @main_kernel::@main_kernel args(%expand_shape_14 : memref<1x4x8xf32>, %4 : memref<1x8x4xf32>, %alloc_16 : memref<1x4x4xf32>)
    memref.dealloc %alloc_13 : memref<4x8xf32>
    %collapse_shape_17 = memref.collapse_shape %alloc_16 [[0, 1], [2]] : memref<1x4x4xf32> into memref<4x4xf32>
    %alloc_18 = memref.alloc() {alignment = 64 : i64} : memref<4x4xf32>
    linalg.generic {indexing_maps = [#map4, #map5, #map4], iterator_types = ["parallel", "parallel"]} ins(%collapse_shape_17, %1 : memref<4x4xf32>, memref<4xf32>) outs(%alloc_18 : memref<4x4xf32>) {
    ^bb0(%in: f32, %in_32: f32, %out: f32):
      %8 = arith.addf %in, %in_32 : f32
      linalg.yield %8 : f32
    }
    memref.dealloc %alloc_16 : memref<1x4x4xf32>
    %alloc_19 = memref.alloc() {alignment = 64 : i64} : memref<4x4xf32>
    linalg.generic {indexing_maps = [#map4, #map4], iterator_types = ["parallel", "parallel"]} ins(%alloc_18 : memref<4x4xf32>) outs(%alloc_19 : memref<4x4xf32>) {
    ^bb0(%in: f32, %out: f32):
      %8 = arith.minf %in, %cst_0 : f32
      %9 = arith.maxf %8, %cst : f32
      linalg.yield %9 : f32
    }
    memref.dealloc %alloc_18 : memref<4x4xf32>
    %expand_shape_20 = memref.expand_shape %alloc_19 [[0, 1], [2]] : memref<4x4xf32> into memref<1x4x4xf32>
    %alloc_21 = memref.alloc() {alignment = 64 : i64} : memref<1x4x2xf32>
    linalg.fill ins(%cst : f32) outs(%alloc_21 : memref<1x4x2xf32>)
    %alloc_22 = memref.alloc() {alignment = 64 : i64} : memref<1x4x2xf32>
    memref.copy %alloc_21, %alloc_22 : memref<1x4x2xf32> to memref<1x4x2xf32>
    memref.dealloc %alloc_21 : memref<1x4x2xf32>
    linalg.batch_matmul ins(%expand_shape_20, %3 : memref<1x4x4xf32>, memref<1x4x2xf32>) outs(%alloc_22 : memref<1x4x2xf32>)
    memref.dealloc %alloc_19 : memref<4x4xf32>
    %collapse_shape_23 = memref.collapse_shape %alloc_22 [[0, 1], [2]] : memref<1x4x2xf32> into memref<4x2xf32>
    %alloc_24 = memref.alloc() {alignment = 64 : i64} : memref<4x2xf32>
    linalg.generic {indexing_maps = [#map4, #map5, #map4], iterator_types = ["parallel", "parallel"]} ins(%collapse_shape_23, %0 : memref<4x2xf32>, memref<2xf32>) outs(%alloc_24 : memref<4x2xf32>) {
    ^bb0(%in: f32, %in_32: f32, %out: f32):
      %8 = arith.addf %in, %in_32 : f32
      linalg.yield %8 : f32
    }
    memref.dealloc %alloc_22 : memref<1x4x2xf32>
    %alloc_25 = memref.alloc() {alignment = 64 : i64} : memref<4x2xf32>
    linalg.generic {indexing_maps = [#map4, #map4], iterator_types = ["parallel", "parallel"]} ins(%alloc_24 : memref<4x2xf32>) outs(%alloc_25 : memref<4x2xf32>) {
    ^bb0(%in: f32, %out: f32):
      %8 = math.exp %in : f32
      linalg.yield %8 : f32
    }
    memref.dealloc %alloc_24 : memref<4x2xf32>
    %alloc_26 = memref.alloc() {alignment = 64 : i64} : memref<4xf32>
    linalg.fill ins(%cst : f32) outs(%alloc_26 : memref<4xf32>)
    %alloc_27 = memref.alloc() {alignment = 64 : i64} : memref<4xf32>
    memref.copy %alloc_26, %alloc_27 : memref<4xf32> to memref<4xf32>
    memref.dealloc %alloc_26 : memref<4xf32>
    linalg.generic {indexing_maps = [#map4, #map6], iterator_types = ["parallel", "reduction"]} ins(%alloc_25 : memref<4x2xf32>) outs(%alloc_27 : memref<4xf32>) {
    ^bb0(%in: f32, %out: f32):
      %8 = arith.addf %in, %out : f32
      linalg.yield %8 : f32
    }
    %expand_shape_28 = memref.expand_shape %alloc_27 [[0, 1]] : memref<4xf32> into memref<4x1xf32>
    %alloc_29 = memref.alloc() {alignment = 64 : i64} : memref<4x1xf32>
    linalg.generic {indexing_maps = [#map4, #map4], iterator_types = ["parallel", "parallel"]} ins(%expand_shape_28 : memref<4x1xf32>) outs(%alloc_29 : memref<4x1xf32>) {
    ^bb0(%in: f32, %out: f32):
      %8 = arith.divf %cst_1, %in : f32
      linalg.yield %8 : f32
    }
    memref.dealloc %alloc_27 : memref<4xf32>
    %collapse_shape_30 = memref.collapse_shape %alloc_29 [[0, 1]] : memref<4x1xf32> into memref<4xf32>
    %alloc_31 = memref.alloc() {alignment = 64 : i64} : memref<4x2xf32>
    linalg.generic {indexing_maps = [#map4, #map6, #map4], iterator_types = ["parallel", "parallel"]} ins(%alloc_25, %collapse_shape_30 : memref<4x2xf32>, memref<4xf32>) outs(%alloc_31 : memref<4x2xf32>) {
    ^bb0(%in: f32, %in_32: f32, %out: f32):
      %8 = arith.mulf %in, %in_32 : f32
      linalg.yield %8 : f32
    }
    memref.dealloc %alloc_29 : memref<4x1xf32>
    memref.dealloc %alloc_25 : memref<4x2xf32>
    memref.copy %alloc_31, %arg1 : memref<4x2xf32> to memref<4x2xf32>
    return
  }
  soda.module @main_kernel {
    soda.func @main_kernel(%arg0: memref<1x4x8xf32>, %arg1: memref<1x8x4xf32>, %arg2: memref<1x4x4xf32>) kernel {
      cf.br ^bb1
    ^bb1:  // pred: ^bb0
      linalg.batch_matmul ins(%arg0, %arg1 : memref<1x4x8xf32>, memref<1x8x4xf32>) outs(%arg2 : memref<1x4x4xf32>)
      soda.return
    }
  }
}


// -----// IR Dump After TestArgumentsToXML (soda-extract-arguments-to-xml) //----- //
#map = affine_map<(d0, d1, d2, d3) -> (d1, d2, d3, d0)>
#map1 = affine_map<(d0, d1, d2, d3) -> (d0, d1, d2, d3)>
#map2 = affine_map<(d0, d1, d2, d3) -> (d3, d0, d1, d2)>
#map3 = affine_map<(d0, d1, d2, d3) -> (d3)>
#map4 = affine_map<(d0, d1) -> (d0, d1)>
#map5 = affine_map<(d0, d1) -> (d1)>
#map6 = affine_map<(d0, d1) -> (d0)>
module attributes {soda.container_module, tf.versions = {bad_consumers = [], min_consumer = 0 : i32, producer = 1482 : i32}} {
  memref.global "private" constant @__constant_5x5x1x1xf32 : memref<5x5x1x1xf32> = dense<[[[[-0.239178866]], [[-0.059307158]], [[0.288950384]], [[0.192838907]], [[-0.283192754]]], [[[0.313829422]], [[-0.313896388]], [[0.070874393]], [[0.316426694]], [[-0.345702201]]], [[[-0.331886679]], [[-0.10094142]], [[-0.193157896]], [[-0.034132719]], [[0.191257656]]], [[[-0.155271932]], [[-0.246177018]], [[0.100440174]], [[-0.321060359]], [[-0.31916821]]], [[[0.106153876]], [[-0.0650999844]], [[0.148521215]], [[0.00141245127]], [[0.283571839]]]]>
  memref.global "private" constant @__constant_1xf32 : memref<1xf32> = dense<0.000000e+00>
  memref.global "private" constant @__constant_1x256x8xf32 : memref<1x256x8xf32> = dense<"0x049EA53D2C60CC3DAAFB183E96A1023E4E05043EA061D63C06C6DEBDD009CC3C087FE83D9003DEBC300A1A3EA64550BD60560B3DA4B396BD290814BEEE43953D382B123ED63045BDA02A083C00BBC53C96F205BE3CB1DC3D603568BD1C7594BDDE92C5BD701DBDBCD256CABD1C9E0CBE30FDBA3D32EBBCBD08D3BE3C3A60CABD6E93B0BD829504BD3E1221BDBEA6A53D6EFA70BD741211BEEA78F3BD00E227BB1E84E4BD7443DFBDECFE3C3DBEECBEBDEE9A80BD3002AA3CAD0C11BE202C133CAC5B973D80DF6DBC48D3043DF8CDC6BD76C036BDCE4D833D97BBB1BD4F2014BEC8EAE5BDCAE48FBD18DDB6BC500AE83D7025583DA87D943C7C1D463D507B2BBC8035AABBE8A780BC32343EBD9C4416BEDBC015BE06AB72BDF24280BDBE54DBBD2E9A0F3E1823CCBD0C634B3D3A7A01BE10F5983C4C8B403DBE6D0BBD90DEABBCC00F473D3E7BEFBD80EC763B78D8773D006DDF3C25E805BE9C518C3DD47CC1BD7807933D66C285BD88C90F3E9E76893D00FC52B9E01BAC3B92CD11BE983DCF3D862BE2BD6841113E70DFC0BCE995E6BD72EBCA3DFA8300BEF06D17BE006C053EB817613D3A170ABE006DA6BAA861133ECB4603BE2892AABC8DF287BD6C36B63DDCF6E03D10B4CABDCCFC8F3D0048AD3C10D20D3CE71098BD7CD5483D18B618BE2695FEBD90DE0C3D74CD4B3DE21C75BDC6CEE0BD628702BE6E3C003E48308D3CC4C05A3D96F80ABEC04AD73B28F4BC3C0411203DD8E5DB3D74EE1FBD4C867E3D1825923D50A4163D07D4DFBD4A4E0F3ED8E3B83C3CA60D3E07E011BEB80F5B3D4CED54BDC2C3883DF8336B3D6A1190BDBB968CBD0CF97A3DD864A53D8E95DFBD5B4AFFBDE40F19BDE23F183E70C013BE7654BE3D5058CD3DF839193E3872873D5396C9BDA0EC083E760DC23DAB9893BDF864CE3D8C3B193EE61B0A3E900E1EBD2621A43DC82ECB3CC05B1FBBA14619BE389FF03D9CC2E83DCBBEFEBD50162C3D58E2F7BC462ACABDDC6D523D93F796BD9E8BAB3D2290BC3DC4B60F3E80EFB13C100A363CFA3DC63DA072483D9A2C0CBD5EEC15BE3C12783D5BA301BE72CDC03D81BA14BE4EF9E9BDA403B8BDAC9E3EBD732000BEFA1DA13D8846E53D949DC9BDF95BC4BD141E873D28C8B9BD0673853D1FA7CCBD5009C83D64661B3D989C523D0059313B50A10B3E180AE53D9D6AD7BD24B06EBD6C03763D36B7C13DA64D06BECC5A92BDD4A4DABDDB55E5BD88FD47BD0A1739BD2C9EFDBDF607D5BD40433B3D28EDC8BC9A040CBE445607BEA05EA1BBA5A908BEB2480CBEAAADC53D280557BD421AB8BD2879F93C3EF6E5BD6875353D54E7433DB8FDF23C64BE913D8847023DE8C6193D2E0AC93DC271BABD2855E63D44AD3D3D8C4000BD807FDC3A401DE4BC3A4B0F3E216911BE5CBBB03DD84F1E3D9A92E9BD3483C23DB40602BEFE5900BE5CB0173E4C6B17BE8CBB253D4ABCBDBD18429DBCC87DE93C1E4718BD2A07013E3C78803D001657BB5CAC92BDC078523DB89074BDC0DD73BB5FD193BD4F6790BDE830A43D8EDD85BD40EC27BBD02F173C4070CEBD02F683BD542719BD8405D03D5E97BABDB4DAC73D0D9D01BED481B03DC04CF2BBDA568EBD382AFBBD2B9905BE3C3D133E08BFC4BC84A7EA3D60BCA93CA8B9C9BD10D0A43D20117FBC6BCDEBBDA4180FBE5CF3333D1524FFBD9EB011BDBDB8A5BD0807133EE8A58F3C4477903D986DFB3C603DE43D1CDBA5BDC0AC6ABCFCA90C3D8070DDBCF8AB28BD68A2B63DE6B503BD7CFFF33D20580ABEA0DF99BC642E623DF4B2E8BD6086523C3192B3BD5099503D2CB6E73DBCF5FA3D1714D2BD00180C3E28E399BCE03AF6BBF6210C3EC665843D9410C73D2E0F0E3E0243EEBD80AFD13DC31E92BD2051A5BC564C51BD3598BFBD08F8923C8CE6DEBD166DAA3DE490FF3DB0A887BC60FA3CBCC22608BE664763BDC4DD10BE8AA371BDCA0666BD5CBBFCBDE085FB3D189CCE3C3046FB3D16CD983DF89F8E3CD0141CBD1D1DD1BD661D973DD21E69BD6805E63DA026D43BD0C2E03DE35381BD90FC77BCB6760A3E6C9818BE22E175BD2BC9A3BD6EB2E0BD1CC2153DC4B414BEF65ABFBD8476773D00A8B7B9C8DB99BCF00C2B3C7442DFBDD0EDEE3DA85ABE3D1099F3BDE2B44DBDC6AE18BE687826BDE8E5D23D8D3D03BE9090553D24BDDD3DC08208BD98A505BE4A93173E1D63CDBD98F330BD58CE973D7A0A853D7852A53DB047C8BC2415DBBDD51AB3BDBC1416BE148015BE1202BDBD41F695BDF9699DBDE26E35BD7E91973DA0A3613DA017013E004F47BB3CE418BE98ECF63CA211103E2E18153E22942BBD1C183ABD88468C3CD87FD6BCE8C8FBBD84E0F23D7C41B43D80F4ECBA34F8DBBD4E12B93DA045D33C13BF95BDFF52DEBD26E5DCBD58D1A0BCD8693D3DC00A663C6212AF3D6A66B33DA683973DCC258D3DA004BABD782B063ECA7E5DBD88BCE03DC04B42BCCCDEBC3D3CF803BD2E9AC73DC422073EC9D189BD5041033E29B613BEA4D991BDE020D7BB6239C9BDE0953C3C3E1B45BDFE2F193E884F01BDC0AF3DBC8066C23AAF23B1BDD0CC733D4ED4AE3D9C585BBD7802B93C1AE5BB3D88ACF53D2CF542BD90C76C3C443783BD60E967BC9E00C53D18E0623D267998BDFCF8343DE7DA87BD8C42E13DF53C16BE00029C3A9AE0E1BD151D92BD8D6EE0BDD3BBC9BD301CE93DB658C3BDA0CCB2BD40A7673D83CB9DBDE4C8A73D4C6A203D64A089BDAC4BC3BDE89245BD391703BEA0D387BD90CE073D74B0E0BDD43279BD7A4BE6BD3E39EABD22C2BE3DA048BDBD0028C2BC071BA4BDE9B994BD803F28BC364A90BDA8FDAE3CF4CB083E064E9CBD90DB783C8018483C3062E6BC18ABDD3DE800303DE63615BE20905F3D1063803CEAE9C83D243566BD10942D3D7EF7883DD20864BD98F8C63D8C5F9C3D4434EC3D140E3D3DACB9EF3D5258033E986DDA3D2018643DF0F37C3D106124BC7E1C06BE3C40063E3E22053EDDD584BDB8CFFCBCFA92A63D6651C53D30491ABE12BCC13D7F6D0BBE064000BDB02215BE16594EBDB48903BE62FA3BBD58BF183D00C1A73A4832663DE84155BDAAD7F3BDE37D17BEF0A7083E4ABC74BD1826CB3C4C903FBD38BF0DBE212100BE7CFBB73D627D0F3E7010053C68B83ABDECC4043DB871C5BDC48F343D80C3C3BDDC39E53D98749A3DF8F3F3BDE04931BCF0A1A43D50D0953C64971FBDFD450EBE24930F3D298CCFBD47C8ABBDB6C1103E0C99C33D8800063D007113BB8374A0BDBC86F53DC86CFDBD35B710BE1C02543D2EE78DBD377DE1BDE0F0C53BC37A05BE48EE4D3DE039903D9CB1D03DA0929DBBD4A8D83D72BA053E666B5EBDB0478F3D0E72DEBD7E1354BD8A4FAB3D4F4DAFBDFAE195BDC7030FBEF0D373BDCCB6213D10D1B63D0D99A0BD7978BFBD301BA63CF88CE3BC849DF63D0A4F09BE37F9A0BDC08F373D001D953C9522DCBD98E1AEBD78EEA33C8E2464BDE80DC83D90CF323D6EC647BD174CB2BD2A10BBBDAD370FBE288872BD8C89F63DC03329BCF0571A3D6685003ED44816BED00E0BBC40E410BCB4C402BEA8EDCA3C94CF88BDB2AAAC3D6097083E2C2A183D267F883DB442FEBD4CC0F13D46BBAB3DD614BCBDF294C63D8877953C40F8333BB7EBDFBDC2FE00BE2CA53FBD46D3F1BD7216C03D9AAC083EBA01B93D546C293D848D143DB878B53DF445B83D909AC7BD64D4CFBD7C43163E80761FBCA7DC99BD10CAFDBD4A82113EC0F505BCD1B587BDD829CEBD360D0E3E5446A3BD60CBAC3BD839CC3D7819AF3DE872C4BD6A2B2ABD1870B7BD3C9AD63DE8A104BD0B4886BD04D0203D80E3CF3B9E56A6BDF40CC2BD9AF7DDBDDA2EE7BD388AF43DE6869DBDC8A9F53DCC6E743D058C11BE28268DBDACA4193E50E0D83DB443B2BDE851953C8899E03D007385BBDA5C87BD684BD0BC4CAF1ABD3071B43CD47A8D3DC00FFA3C003A74BC31CD0CBEF4EFD53DB82081BC571119BE54BBECBDBC5EEEBCB6558A3D3AC6873D7E3F873D78FCDEBCAEEB32BD44980D3D2E053FBDE889D63DF796B6BDD26021BDA284CBBD9E1076BDE0C59F3B48A4E13DD24F74BD0C61E03DAD3EEEBDB0F6A8BD2C230F3E549636BDA0F541BC4007563CC0E0163E981FA5BC587E95BD560C10BE40CE4FBD1C1D8D3DB4918E3D9C00E4BC2CCDED3D6A15B03D4C72F83DC0673CBDED3EA5BDC0F13DBD627DB9BD10E92ABCD7380CBEFC30C3BD5440313D9EB3003E008F59BA627385BD6CD249BD647A953D4C27FD3D40B6593CCC9A063D20F516BE6CCC3C3D8CF1DA3DBEC5CCBD44C91A3D80CC373DA69D093EEA1FEBBD18F2093EC41E773D68C796BC8002E2BBDA8604BD4C2E633D04FEC43D74D30E3D1499C23DFE9FD3BD27569FBD04CF383D5927D2BDCABFDFBDBA474BBD0260A03D0448EB3D28EB0E3EA2B4093EA0E24B3D5C98F83D2D5F02BE3048193E78E6EF3CAAB1053E06AA8A3D663EFABD681D083D475E12BE603B7C3D1062433D803DAABCA06DA0BC2C52E83D40FE313BE801C0BDE7B4A0BDFFC30DBE4825C2BC666BF9BDD48E5E3D8C2CC63DE431943D050215BE46D795BD98F4FEBD94E315BD3011543DD0996F3D8665CBBDECC9073E92CA073E567D093ED85EC83D88BCE83C1C76763DF20A823DAA3E4ABDE81D073D40DEDE3C389705BECCC0EDBDDA5618BE362FCBBD40513CBC6CB391BD20DD0CBEBFA204BEB619BABDB82AD8BC18866B3D8053873A40992A3BEC8C0D3D4842D63C432915BE90FDA7BDE477E43D3A9EF1BDB0034C3D0A7CF9BD3CCA62BD3C3F693DE84DABBC42750E3E802F01BDC016BEBB6A53B9BD609BB2BC2CAD0C3EA864CCBD0CAED73D007FC0BA7034633D608FD23D6C5B143D68AD093E5026F13DC063483B92283FBD508A173E8EB6AF3D749FC23D9643093EB0BFE93DB8FD09BE5401803D402D63BB2017183E1444F4BDC212CCBD70F271BC382DCC3D259711BE6AFAE1BD80B364BCFA44A53DF048743CA6EB97BD6039053E88B0A6BC0CEB073EA4D909BE505821BCD73C81BDA4404BBD0E14093E24DA7A3D006A173C5C73EABDF07C833C1E1C66BDCE5D823D80DC093D2D54A0BDDC02CE3D0072C7BC818782BDB82493BDDC4ACB3DD4CCE93DB2B5AABD642B9D3DD4C362BD30E3B7BC3D91FABDCA18DFBDE225A33D231F16BE8C4E35BDD1C591BD9C68073E81C0B9BDA41D013E70E1D53DBAC15DBD7602C4BD705406BCD0111F3C52F42BBDE0D89F3D6A2F093ECA789F3D900DEC3D5E5434BD30B87B3CA9E7B8BD1094173DA82B9CBC45D580BDFE59183E48F0B4BD6800A63D5F8983BD7549B6BDB0A8593D264372BDCE52F8BD4CBDE43D56090E3E4886D53D78E99B3C64F0303D88521FBD9E0D03BD0C7C973D54AB3ABD4C153EBDAB0503BE5EBAB43D13D58FBDA873893CC070D73D2730B7BD105F303DAD6FAEBD06DDF5BDD4D05B3DC4E0693DB0895A3D664503BE4084A43CFE2FB2BD16D90F3EAB5C0FBEF065A8BCF0E5CE3D549DE33D29FD9BBDF403ED3D3E86BDBD2E27C13DDC085DBDB46A4D3DA6ADA9BD0416DD3DEC898F3D00A2B039E5D707BEBEF8023E28C340BD6EB9EFBD591597BD007A2EBBC833F6BCCE359C3D88C3C93CE0ADBABB40E2A3BD5E828E3DC09463BCD627123E7A0A23BDBDEF84BD2B94C5BD94D8DABDFCD5AD3D94675F3DB499D5BDE05D1BBCE0B014BEE3EF17BE478917BE4060EB3D56FD02BD100224BCC4C965BD40CFDABD4805E93C46320C3E5C9F39BD5CAF69BD60F5F0BC44B5DE3D7CDC253DF770C4BD1CDCDC3DF61615BD7C3A45BDE19CF7BD0982D6BDC21DF9BDC261063E8029D83C923CA53DA4420C3D045FB43D2842A73D80D8ADBA50B7B7BC7ECBD6BD258794BD042A26BDE2A5C63D6006583DD0FAAD3C92B85FBDE44C053EDB4A9CBDC031B8BC2C25B03D0AB6A13D16000FBE4CCB493D8075713B001443BDFC2458BDAE99AC3D1595CABD40BC5ABC93A107BE1FF314BEA226EFBD248A4D3D260BC4BD40398C3C709213BC5ED0AE3D82C30DBEFF5F19BEF65C013ECEB0CABDF15BF8BD7431DD3D4EE337BD10E006BD62FC17BE9B04C2BD977DE0BD30BA7C3DA4B1153D9A840BBE0AA6043E748080BD4C6AE93D924517BED01F28BC980D8DBC9CEB4D3D6B5D16BE78082D3D68EAABBDDCDF383D6EF46CBD50F7F33D30338E3C8056693C12A8EDBD82C37EBDE89B903D0E2CAA3DE3E704BEE62C053E506570BC98C3143E20A6E1BD56015ABD5836003E60BFB4BCE8E1E4BDFAE8873DA2C70C3E44AF543D7DDC0FBE9C6414BEF45687BD10A7EE3D5007873DCA80C3BD9C88DB3DC03A643B28B7A2BCBCCD2A3DAB70EDBDE4F4E73DB4C7123E067302BD90ED15BD940E143EC4DFD83D2C900C3DD00BB83C5A140DBDA3F4B3BD242450BDF0A1A03CDF9989BDC02AB83BF0A98DBC8258A83DD06BDABCBEB3DCBD5C92D0BD36CF053EB0BC5BBCC4730F3E3054273CEE2F7DBDB5B3C2BDE0EFF03B60B1E33C002F4E3CB4CCF6BDD4CAEB3DC60D0C3E636516BE9E80A33DEA6917BE6E13A43DE6F407BE60A80F3CC04AD7BB3CDEDA3DA05336BC9846EEBD608062BC900E623CC4E662BD702A823CDCB6013E4A68093E849A1F3DA87FC9BDF0FDF2BC7EEE843DC2A9C3BD6004E2BBFC8C923D896D0FBEECBBCE3DDED9A6BDF816E13D1CAB023E88573D3D4ECE6DBD06B28D3D10B0043E92FDC9BDE810803CA42367BDF8BFDBBDACB9F6BD2037E8BDF8DF983D968A093EB8F5CA3D60E3CF3D9803193E6160DFBDFCADDA3DCDB0C9BD76EEC9BD44EDF93D74DBD7BD1F0985BDF87DE0BDCE29893D89DB08BE705BDD3D10D4B63DBC8F693D90FE853CBB3315BE36AD033E40B6DA3D493C99BD0073013BC08DFF3DF24FAF3D3AFC043E34E7703DE41DF93D452704BE3E64BB3DFC826EBD8084BB3BD8BFC0BCA0CADC3DE62031BDF622B73D5E6EFFBD80361E3B88D4DEBD908D9B3D5275C4BD2E1408BE2836193E12DD913D223D1ABDCC26583DD42CD9BDCC58043D26B0B23DA801AABD00FC9BBAFC38AABD33340EBE36A524BDD6D9BD3D14DA133E0CAB4F3DC89FBCBCA658A4BDF4E9B53D2C30F03D403F7F3C9C79E9BD4896D03DE004BB3DAC12F33D6821103DD86AB6BCC4D4D03D2CEC9E3D9C55C73DD8061B3D1ACF18BE70B653BDD2EB23BD3AF70C3EB09609BE006397BCD094483D38565A3D2090903D60B828BC50449BBC99CD07BED6F393BD1C28B03D6C58783DC244813DFE6D113E50EE11BEFCF8FF3D5C2895BD60D0053EECB1933D20CBB93B404F1E3B1041D23C80798BBCD09A053E6ED40CBEA4F6F73D38B2A03C217088BD5DF7FDBD5490733DCFECB0BD44743E3DC8DF4ABD3881CF3D0EAE27BDBEED973D9AE08B3DA4CC5EBD920EA53D44DAB03DD8DE1BBD000901BC1E32FDBDDEB690BD780FED3D78B0E8BCF0CFA6BDBCC42C3D82C8B5BD12613FBD61610BBEC0AFB23B4054033B9E66C43DB2D302BDF620B73DA8FC7B3DBC5413BEA099473D0CC54BBD8C7BEF3D68D9D83D90FA79BC7420CABDA060CF3CA8EBD83D90848ABD284FC4BC34DAEC3DC01748BBB0F601BDBCD9FCBCD87B04BE0553C3BD8900B9BDE9129DBD20060B3E34F3B3BD6017463C9C79653D9EF4073E1EBEBBBD1405883D58BAC43DDEAA133EA4B4833D7A5735BD0A10DCBDE0A8703DB527D2BDCA01C83DF882F73DC0E482BB08D411BE306DB53C40587B3B5CE555BD30AC97BCF0FD4E3D8557AEBD80BD863BBED4C13DCF98E4BDD82F863DD219033E0845CFBC3891E43D34A3543D28D19EBC76A21BBD92073ABD1C0ACDBDACEBDF3DE5920CBE16B204BE049B783DB028503C9015C4BC1432363D62F6CCBDEC90893D6039C93C2EE6073E1E68B5BD88AFE13D9110C9BDD8ACBBBC7241EDBD74BA153DC453483D46EA04BDB4DE233D4CD8AB3D9201933DE460043D6412D03D80F19EBBF42F0C3D0CC2DF3D842B413D7A96043E00D8D83A1A4DB83D2410403D8617DDBDDCFE933D0841963D10DC6BBDE52BD4BD274C15BE6076DE3D740A03BDE4F8CD3D4EB4C03D876816BEA0C99CBDFEDB013E0077FF3D80309BBCA8914E3D1499AD3D100638BC0C40CE3DC4F446BDFC5B773D249DBB3D68AA9DBCBC99183E3F780EBE04D4443D755202BE0003923DBAF98D3DFEAC78BDD61515BE72B481BD8010593B780C063D8862DF3D7E7F80BD34261A3E46590A3E90B193BD8AEFC13DB8C0CEBCC03F0B3B44B8F03D244E7A3D80E1823B5080103E4073D0BDF0AD2E3DA90308BE20B8913CC631043E4F1D89BD40C6BB3CD0190E3E5232B7BD0C29E63D9D7E12BE041B69BD9637BD3D4BDB0BBE18639F3C50B14BBCE02ECD3BF061F93CD8E5CDBC00E0CFBD0CAF19BDD85E5C3D68A1DEBC6E6EA43D225219BE06100C3EC0B5CE3D42A93CBDFF78F6BDD6AE96BD9E9ABDBDC652C4BD5CE35E3D0C4CF6BC001E6F3A8CE26D3DCC91653D2F50ACBD18AFF6BCD0B3EBBC38EFFD3C0EC233BDC12019BE80B2C5BB382AFCBDC8B7A1BC3874F1BDD06701BC066F82BDF4702ABD2C7D083D8C9BF33DFC09F53D00A9C83D73CD92BDE5CAC6BD8637A53D7AD5A63D068736BD80441EBBE432943DEC00F53DB02728BC6619A03D40466D3D5A0E9E3D8C631EBDE25271BDF8FA7FBD00AB8F3BE1AA09BEE484DABD10C1FEBC9EB5063E09990EBE16017FBD04668C3D74146E3DFC3809BEF870CE3C8CC6D83D80FE503B2403083EC54CB4BD8490173E10B8573DDBC6A6BDD7AFEFBDF0CEF93DB4846B3D801C603C2CE0023D387BF33C244A7CBD4004143E423B103E9A1FE3BD0098E23D7033073E34BC413D74CC053EE8319BBDC01A14BD447B3FBD442C9A3D2823FF3DA4C1313D68387BBD60AC633CA05998BC5028313CC0CD36BCFCEA9F3DF0E1613C503F7D3D7C61263DA8B4103E1CF8913D30AF56BCD35C08BE008CE53908619FBCE40EF73D40ECEEBD087BA4BC1EE22BBDD022CE3D30AAA63CBA217FBD30F30A3E20BAAC3BA0D7C3BD902AED3DA0F00EBDC0A8B3BD521DA1BDFCFE463DEBB109BE327CBA3D2609183E9ACA3FBDA40A02BE1C6C083E00167BBCF4E6A83D96F4AD3D6059D2BB00834F3C049519BE40542BBCA8A8E03D0DEB91BD1832113D6C13FDBD00D82139EE730EBE0226B63D5C39FABC50D90ABE6AADDEBD0076743A6ACD56BDF26D4BBD966E013E6ACEC43D406E423C80C83DBC8CC8A5BD67A704BEA4B3613D80B9793BD48CD2BD8863FEBDD47BB6BDCC6EFE3D786C863C60153DBC00C86FB960A5443C1069B4BC94FDD53D1E739F3DC864B6BD34AF0D3E10D55B3C7B6A19BE6687ACBD241ACBBD48DC26BDBCCCF23D74550C3D3801EC3D3EF4D0BD40628CBDCDEF08BE2E10C63D160E4CBD60EC0B3E88DF2CBD108CFEBC8E96A53D8DD4FABD90750FBCB2A90F3E7022CF3C4C9A053E8E48F1BD008E11BCBECEDCBD501C1C3DDD2AEABD527A36BDD02A843DF4C86F3D9FDD0BBE9E9ECABD325618BD2081D23DBEFA78BD50AE643DA03ABDBD8A3507BE680E39BD06D756BD64F202BE14CD2B3D602A063E0CDB283D9C10D4BD30D901BCC0D7FE3CB0B6D63D6CE1003E06B540BD700FED3CBCBD713D747C6F3D72C7F5BD4E9107BE60D0C2BC022935BD487D15BEB0D3CD3DACB6503D5698B53DF0B7BBBC20EB81BC82BD013EF0DFBCBC58BD82BCD03F0A3D7E3381BDC680C23D148E01BE1CFF063E70D5D43C94A4803DD4516F3DFED90A3EBACA18BE20207B3C5051F7BD589702BED47FAFBD8CB44FBD28A3E6BCF075EF3C38408E3DE4B737BDB282AF3DB06814BD66546CBDB0B86F3CA4303F3D50EA133D2050143DD282ACBD54F975BD18ED043D955B13BEA2C7B13D3E4106BD24C9763DAC06C0BD14F4DB3DDF3A85BD38040B3D8431283D810007BEB1959EBD8A2A043ED4C1E23DD0FFD13DC9ECAEBD3C94FC3DE9DF19BE8A50A1BD4074053B7105A0BD081FD83D961425BD0AB4BF3D9419AFBD2CD65E3DF6BE19BE39DFD7BD352103BE74D19F3DFE9E24BDA8003D3D9C1BF23DBC75EDBC9B6597BDC446193DF00096BC8811ACBCE45282BDACBC5DBD803E7CBDA09CAA3C46DD0F3EE81EA03C484A373DC4569BBD087E0B3DC0DA06BD08E482BD531F16BEA0CDDE3D044B1A3E6F020CBE6889E13DE021E63CE061DBBBA85C273D924D013E0AF79BBDA94F0DBEC43E3B3D3FE401BEB0EBBD3C605683BC729E193E18758CBD36B5853DA03ABCBB9C5BDE3DCA87093EB8286E3D00EF7A3AB6DE4DBDDED4A23DB60B933DFC85A43D600EB23DCFCBFABD983EE1BD38C4373D9A92003EE460453D48DAB4BCECE7D33D80412DBB867AAB3DACA1DD3D34EEE63D966718BED023353C3AA706BEE8B3DD3D6201B93D3E23193EB02A793D3C1119BECC67D33DFC0A053EF050ED3D40EA9DBCF134B0BDD07604BE7EF2053EEC7E093E3CEFE53D30D83BBC9EE5093E8ED9C6BDD206D2BD8ABE12BDCF460BBE49F612BE60D04CBC5FDD16BE7001743C2B9E04BE3093C43DD415F03D60A1CCBD00CB663BE241103EBC55893D046CFFBCB448F0BDB24A0B3EA0759C3B0FC7FABDFCED8D3DD612B13D6C6CF2BDCC19F03DC4FC5EBD2C22D63D30D3B8BCD828B8BC1A0E56BD205A8C3C2CEDEDBD047DD3BDBC36CD3DF4252C3DF454E83D3058FBBC840DDE3D489C08BE26C37FBD78BCA93C2CF50F3D66B8E7BDF449B73D40D197BC63DD07BECC3AD3BD084298BC0B8A9DBD0012143A00C9723B22CC0C3ED480FD3D7CCE923DC23A8E3DB0374A3C369A38BD92B900BE7406F3BC282ED43D22082FBD6B5495BD4C9CBF3D5C4922BD10CD84BC9B89CABD10D6203C582F8BBC00B0B6BBA6932DBD201FECBDC08B3DBCAE96073EB80F3E3D90F5DE3DB030323CDE83BB3D18BE793D7AF714BEC056F13C5A57083E1AB2053EDD9213BE1220A13DC4DBCABDD085D9BD207B2DBC603B2C3CEDDB14BED881953C78F31A3D403EA7BB6C40063E1698133E8EA592BDA480A73DFC09E3BDE011563D20DBC5BCEE60BABD7020123D40BAFF3BE002FB3D08EDE63D84B8953DB8564EBD8046B93BC0DE013C48F85CBD303B523C700581BCA67D82BD04499D3DA4568C3D86FAC13D207D083C5747D8BD6C690F3D880CF93D2F430CBE38AAFFBD04850CBE7265CABDAE4C8E3DD61109BE7044BD3DA8FD58BD10AA4DBC3943A4BD786ED03C5874BFBDF0D0DC3D0C5D743D603F263CD22E61BD94480EBE7E808BBD0C72113D808459BC94E2C3BDB83F553D58C8933D706A0B3E28CE013E27B313BEB8CD863CE468DC3D18E80C3E55B209BEA342A3BDC497803D32ECAB3D1052823D7A11CA3D90BE4F3CE8E198BC14440A3E900AF3BD90719D3D067A5CBD3044703C352F07BE8027493DBC5B0F3DCEFE043EA80FB53DE60E4FBDE78603BE988FED3CF05048BD20CCB33C4002563CD93313BECAE20A3E20A00EBC00B3B4BA56619ABD2260C43D0007C6BA56240DBED7AAB3BDF6241BBDE855D93DE4147C3DDB44F7BDB2B119BE32FB8F3D78C8DD3CA63DA83DFC3507BECA3614BE6A25B13D36EF76BD6A6482BDBF1D0ABE6117A8BD70D91FBCC8C5B73C203709BCA18D07BED0542D3CEC0D8D3D0066FD393488503D881EB73CD7030CBEA470CE3D3064B73C00F177BB8045B83C5C0E0A3EEDAFA9BD">
  memref.global "private" constant @__constant_1x8x4xf32 : memref<1x8x4xf32> = dense<[[[-0.553162336, 0.484506547, -0.0500785708, 0.181675315], [0.661634862, -0.267243057, 0.239755571, -0.0333524942], [-0.0952668786, 0.595283091, 0.0143252015, 0.618282735], [0.0734405517, -0.578623474, -0.0334805846, 0.0194116831], [-0.662837744, -0.21215862, -0.333795279, 0.541747868], [0.253724039, -2.615330e-01, 0.115942955, 0.103184581], [0.462623656, 0.391423881, -0.66526252, -0.693425894], [-0.365181863, 0.524228394, 0.668026506, -0.660975337]]]>
  memref.global "private" constant @__constant_1x4x2xf32 : memref<1x4x2xf32> = dense<[[[0.147334099, -0.553795576], [0.135106802, -0.970039606], [0.585191488, -0.218065262], [0.381030798, 0.867018461]]]>
  memref.global "private" constant @__constant_8xf32 : memref<8xf32> = dense<0.000000e+00>
  memref.global "private" constant @__constant_4xf32 : memref<4xf32> = dense<0.000000e+00>
  memref.global "private" constant @__constant_2xf32 : memref<2xf32> = dense<0.000000e+00>
  func.func @main(%arg0: memref<4x32x32x1xf32>, %arg1: memref<4x2xf32>) attributes {tf.entry_function = {control_outputs = "", inputs = "x1", outputs = "Identity"}} {
    %cst = arith.constant 0.000000e+00 : f32
    %cst_0 = arith.constant 3.40282347E+38 : f32
    %cst_1 = arith.constant 1.000000e+00 : f32
    %0 = memref.get_global @__constant_2xf32 : memref<2xf32>
    %1 = memref.get_global @__constant_4xf32 : memref<4xf32>
    %2 = memref.get_global @__constant_8xf32 : memref<8xf32>
    %3 = memref.get_global @__constant_1x4x2xf32 : memref<1x4x2xf32>
    %4 = memref.get_global @__constant_1x8x4xf32 : memref<1x8x4xf32>
    %5 = memref.get_global @__constant_1x256x8xf32 : memref<1x256x8xf32>
    %6 = memref.get_global @__constant_1xf32 : memref<1xf32>
    %7 = memref.get_global @__constant_5x5x1x1xf32 : memref<5x5x1x1xf32>
    %alloc = memref.alloc() {alignment = 64 : i64} : memref<1x5x5x1xf32>
    linalg.generic {indexing_maps = [#map, #map1], iterator_types = ["parallel", "parallel", "parallel", "parallel"]} ins(%7 : memref<5x5x1x1xf32>) outs(%alloc : memref<1x5x5x1xf32>) {
    ^bb0(%in: f32, %out: f32):
      linalg.yield %in : f32
    }
    %alloc_2 = memref.alloc() {alignment = 64 : i64} : memref<4x35x35x1xf32>
    linalg.fill ins(%cst : f32) outs(%alloc_2 : memref<4x35x35x1xf32>)
    %alloc_3 = memref.alloc() {alignment = 64 : i64} : memref<4x35x35x1xf32>
    memref.copy %alloc_2, %alloc_3 : memref<4x35x35x1xf32> to memref<4x35x35x1xf32>
    memref.dealloc %alloc_2 : memref<4x35x35x1xf32>
    %subview = memref.subview %alloc_3[0, 1, 1, 0] [4, 32, 32, 1] [1, 1, 1, 1] : memref<4x35x35x1xf32> to memref<4x32x32x1xf32, strided<[1225, 35, 1, 1], offset: 36>>
    memref.copy %arg0, %subview : memref<4x32x32x1xf32> to memref<4x32x32x1xf32, strided<[1225, 35, 1, 1], offset: 36>>
    %alloc_4 = memref.alloc() {alignment = 64 : i64} : memref<5x5x1x1xf32>
    linalg.generic {indexing_maps = [#map2, #map1], iterator_types = ["parallel", "parallel", "parallel", "parallel"]} ins(%alloc : memref<1x5x5x1xf32>) outs(%alloc_4 : memref<5x5x1x1xf32>) {
    ^bb0(%in: f32, %out: f32):
      linalg.yield %in : f32
    }
    memref.dealloc %alloc : memref<1x5x5x1xf32>
    %alloc_5 = memref.alloc() {alignment = 64 : i64} : memref<4x16x16x1xf32>
    linalg.fill ins(%cst : f32) outs(%alloc_5 : memref<4x16x16x1xf32>)
    %alloc_6 = memref.alloc() {alignment = 64 : i64} : memref<4x16x16x1xf32>
    memref.copy %alloc_5, %alloc_6 : memref<4x16x16x1xf32> to memref<4x16x16x1xf32>
    memref.dealloc %alloc_5 : memref<4x16x16x1xf32>
    linalg.conv_2d_nhwc_hwcf {dilations = dense<1> : tensor<2xi64>, strides = dense<2> : tensor<2xi64>} ins(%alloc_3, %alloc_4 : memref<4x35x35x1xf32>, memref<5x5x1x1xf32>) outs(%alloc_6 : memref<4x16x16x1xf32>)
    memref.dealloc %alloc_4 : memref<5x5x1x1xf32>
    memref.dealloc %alloc_3 : memref<4x35x35x1xf32>
    %alloc_7 = memref.alloc() {alignment = 64 : i64} : memref<4x16x16x1xf32>
    linalg.generic {indexing_maps = [#map3, #map1, #map1], iterator_types = ["parallel", "parallel", "parallel", "parallel"]} ins(%6, %alloc_6 : memref<1xf32>, memref<4x16x16x1xf32>) outs(%alloc_7 : memref<4x16x16x1xf32>) {
    ^bb0(%in: f32, %in_32: f32, %out: f32):
      %8 = arith.addf %in, %in_32 : f32
      linalg.yield %8 : f32
    }
    memref.dealloc %alloc_6 : memref<4x16x16x1xf32>
    %alloc_8 = memref.alloc() {alignment = 64 : i64} : memref<4x16x16x1xf32>
    linalg.generic {indexing_maps = [#map1, #map1], iterator_types = ["parallel", "parallel", "parallel", "parallel"]} ins(%alloc_7 : memref<4x16x16x1xf32>) outs(%alloc_8 : memref<4x16x16x1xf32>) {
    ^bb0(%in: f32, %out: f32):
      %8 = arith.minf %in, %cst_0 : f32
      %9 = arith.maxf %8, %cst : f32
      linalg.yield %9 : f32
    }
    memref.dealloc %alloc_7 : memref<4x16x16x1xf32>
    %collapse_shape = memref.collapse_shape %alloc_8 [[0], [1, 2, 3]] : memref<4x16x16x1xf32> into memref<4x256xf32>
    %expand_shape = memref.expand_shape %collapse_shape [[0, 1], [2]] : memref<4x256xf32> into memref<1x4x256xf32>
    %alloc_9 = memref.alloc() {alignment = 64 : i64} : memref<1x4x8xf32>
    linalg.fill ins(%cst : f32) outs(%alloc_9 : memref<1x4x8xf32>)
    %alloc_10 = memref.alloc() {alignment = 64 : i64} : memref<1x4x8xf32>
    memref.copy %alloc_9, %alloc_10 : memref<1x4x8xf32> to memref<1x4x8xf32>
    memref.dealloc %alloc_9 : memref<1x4x8xf32>
    linalg.batch_matmul ins(%expand_shape, %5 : memref<1x4x256xf32>, memref<1x256x8xf32>) outs(%alloc_10 : memref<1x4x8xf32>)
    memref.dealloc %alloc_8 : memref<4x16x16x1xf32>
    %collapse_shape_11 = memref.collapse_shape %alloc_10 [[0, 1], [2]] : memref<1x4x8xf32> into memref<4x8xf32>
    %alloc_12 = memref.alloc() {alignment = 64 : i64} : memref<4x8xf32>
    linalg.generic {indexing_maps = [#map4, #map5, #map4], iterator_types = ["parallel", "parallel"]} ins(%collapse_shape_11, %2 : memref<4x8xf32>, memref<8xf32>) outs(%alloc_12 : memref<4x8xf32>) {
    ^bb0(%in: f32, %in_32: f32, %out: f32):
      %8 = arith.addf %in, %in_32 : f32
      linalg.yield %8 : f32
    }
    memref.dealloc %alloc_10 : memref<1x4x8xf32>
    %alloc_13 = memref.alloc() {alignment = 64 : i64} : memref<4x8xf32>
    linalg.generic {indexing_maps = [#map4, #map4], iterator_types = ["parallel", "parallel"]} ins(%alloc_12 : memref<4x8xf32>) outs(%alloc_13 : memref<4x8xf32>) {
    ^bb0(%in: f32, %out: f32):
      %8 = arith.minf %in, %cst_0 : f32
      %9 = arith.maxf %8, %cst : f32
      linalg.yield %9 : f32
    }
    memref.dealloc %alloc_12 : memref<4x8xf32>
    %expand_shape_14 = memref.expand_shape %alloc_13 [[0, 1], [2]] : memref<4x8xf32> into memref<1x4x8xf32>
    %alloc_15 = memref.alloc() {alignment = 64 : i64} : memref<1x4x4xf32>
    linalg.fill ins(%cst : f32) outs(%alloc_15 : memref<1x4x4xf32>)
    %alloc_16 = memref.alloc() {alignment = 64 : i64} : memref<1x4x4xf32>
    memref.copy %alloc_15, %alloc_16 : memref<1x4x4xf32> to memref<1x4x4xf32>
    memref.dealloc %alloc_15 : memref<1x4x4xf32>
    soda.launch_func  @main_kernel::@main_kernel args(%expand_shape_14 : memref<1x4x8xf32>, %4 : memref<1x8x4xf32>, %alloc_16 : memref<1x4x4xf32>)
    memref.dealloc %alloc_13 : memref<4x8xf32>
    %collapse_shape_17 = memref.collapse_shape %alloc_16 [[0, 1], [2]] : memref<1x4x4xf32> into memref<4x4xf32>
    %alloc_18 = memref.alloc() {alignment = 64 : i64} : memref<4x4xf32>
    linalg.generic {indexing_maps = [#map4, #map5, #map4], iterator_types = ["parallel", "parallel"]} ins(%collapse_shape_17, %1 : memref<4x4xf32>, memref<4xf32>) outs(%alloc_18 : memref<4x4xf32>) {
    ^bb0(%in: f32, %in_32: f32, %out: f32):
      %8 = arith.addf %in, %in_32 : f32
      linalg.yield %8 : f32
    }
    memref.dealloc %alloc_16 : memref<1x4x4xf32>
    %alloc_19 = memref.alloc() {alignment = 64 : i64} : memref<4x4xf32>
    linalg.generic {indexing_maps = [#map4, #map4], iterator_types = ["parallel", "parallel"]} ins(%alloc_18 : memref<4x4xf32>) outs(%alloc_19 : memref<4x4xf32>) {
    ^bb0(%in: f32, %out: f32):
      %8 = arith.minf %in, %cst_0 : f32
      %9 = arith.maxf %8, %cst : f32
      linalg.yield %9 : f32
    }
    memref.dealloc %alloc_18 : memref<4x4xf32>
    %expand_shape_20 = memref.expand_shape %alloc_19 [[0, 1], [2]] : memref<4x4xf32> into memref<1x4x4xf32>
    %alloc_21 = memref.alloc() {alignment = 64 : i64} : memref<1x4x2xf32>
    linalg.fill ins(%cst : f32) outs(%alloc_21 : memref<1x4x2xf32>)
    %alloc_22 = memref.alloc() {alignment = 64 : i64} : memref<1x4x2xf32>
    memref.copy %alloc_21, %alloc_22 : memref<1x4x2xf32> to memref<1x4x2xf32>
    memref.dealloc %alloc_21 : memref<1x4x2xf32>
    linalg.batch_matmul ins(%expand_shape_20, %3 : memref<1x4x4xf32>, memref<1x4x2xf32>) outs(%alloc_22 : memref<1x4x2xf32>)
    memref.dealloc %alloc_19 : memref<4x4xf32>
    %collapse_shape_23 = memref.collapse_shape %alloc_22 [[0, 1], [2]] : memref<1x4x2xf32> into memref<4x2xf32>
    %alloc_24 = memref.alloc() {alignment = 64 : i64} : memref<4x2xf32>
    linalg.generic {indexing_maps = [#map4, #map5, #map4], iterator_types = ["parallel", "parallel"]} ins(%collapse_shape_23, %0 : memref<4x2xf32>, memref<2xf32>) outs(%alloc_24 : memref<4x2xf32>) {
    ^bb0(%in: f32, %in_32: f32, %out: f32):
      %8 = arith.addf %in, %in_32 : f32
      linalg.yield %8 : f32
    }
    memref.dealloc %alloc_22 : memref<1x4x2xf32>
    %alloc_25 = memref.alloc() {alignment = 64 : i64} : memref<4x2xf32>
    linalg.generic {indexing_maps = [#map4, #map4], iterator_types = ["parallel", "parallel"]} ins(%alloc_24 : memref<4x2xf32>) outs(%alloc_25 : memref<4x2xf32>) {
    ^bb0(%in: f32, %out: f32):
      %8 = math.exp %in : f32
      linalg.yield %8 : f32
    }
    memref.dealloc %alloc_24 : memref<4x2xf32>
    %alloc_26 = memref.alloc() {alignment = 64 : i64} : memref<4xf32>
    linalg.fill ins(%cst : f32) outs(%alloc_26 : memref<4xf32>)
    %alloc_27 = memref.alloc() {alignment = 64 : i64} : memref<4xf32>
    memref.copy %alloc_26, %alloc_27 : memref<4xf32> to memref<4xf32>
    memref.dealloc %alloc_26 : memref<4xf32>
    linalg.generic {indexing_maps = [#map4, #map6], iterator_types = ["parallel", "reduction"]} ins(%alloc_25 : memref<4x2xf32>) outs(%alloc_27 : memref<4xf32>) {
    ^bb0(%in: f32, %out: f32):
      %8 = arith.addf %in, %out : f32
      linalg.yield %8 : f32
    }
    %expand_shape_28 = memref.expand_shape %alloc_27 [[0, 1]] : memref<4xf32> into memref<4x1xf32>
    %alloc_29 = memref.alloc() {alignment = 64 : i64} : memref<4x1xf32>
    linalg.generic {indexing_maps = [#map4, #map4], iterator_types = ["parallel", "parallel"]} ins(%expand_shape_28 : memref<4x1xf32>) outs(%alloc_29 : memref<4x1xf32>) {
    ^bb0(%in: f32, %out: f32):
      %8 = arith.divf %cst_1, %in : f32
      linalg.yield %8 : f32
    }
    memref.dealloc %alloc_27 : memref<4xf32>
    %collapse_shape_30 = memref.collapse_shape %alloc_29 [[0, 1]] : memref<4x1xf32> into memref<4xf32>
    %alloc_31 = memref.alloc() {alignment = 64 : i64} : memref<4x2xf32>
    linalg.generic {indexing_maps = [#map4, #map6, #map4], iterator_types = ["parallel", "parallel"]} ins(%alloc_25, %collapse_shape_30 : memref<4x2xf32>, memref<4xf32>) outs(%alloc_31 : memref<4x2xf32>) {
    ^bb0(%in: f32, %in_32: f32, %out: f32):
      %8 = arith.mulf %in, %in_32 : f32
      linalg.yield %8 : f32
    }
    memref.dealloc %alloc_29 : memref<4x1xf32>
    memref.dealloc %alloc_25 : memref<4x2xf32>
    memref.copy %alloc_31, %arg1 : memref<4x2xf32> to memref<4x2xf32>
    return
  }
  soda.module @main_kernel {
    soda.func @main_kernel(%arg0: memref<1x4x8xf32>, %arg1: memref<1x8x4xf32>, %arg2: memref<1x4x4xf32>) kernel {
      cf.br ^bb1
    ^bb1:  // pred: ^bb0
      linalg.batch_matmul ins(%arg0, %arg1 : memref<1x4x8xf32>, memref<1x8x4xf32>) outs(%arg2 : memref<1x4x4xf32>)
      soda.return
    }
  }
}


// -----// IR Dump After SodaKernelGeneration (soda-generate-bambu-accelcode) //----- //
module attributes {soda.bambu.container_module, soda.container_module, tf.versions = {bad_consumers = [], min_consumer = 0 : i32, producer = 1482 : i32}} {
  func.func @main_kernel(%arg0: memref<1x4x8xf32> {llvm.noalias}, %arg1: memref<1x8x4xf32> {llvm.noalias}, %arg2: memref<1x4x4xf32> {llvm.noalias}) {
    cf.br ^bb1
  ^bb1:  // pred: ^bb0
    linalg.batch_matmul ins(%arg0, %arg1 : memref<1x4x8xf32>, memref<1x8x4xf32>) outs(%arg2 : memref<1x4x4xf32>)
    return
  }
}


// -----// IR Dump After LinalgLowerToAffineLoops (convert-linalg-to-affine-loops) //----- //
func.func @main_kernel(%arg0: memref<1x4x8xf32> {llvm.noalias}, %arg1: memref<1x8x4xf32> {llvm.noalias}, %arg2: memref<1x4x4xf32> {llvm.noalias}) {
  cf.br ^bb1
^bb1:  // pred: ^bb0
  affine.for %arg3 = 0 to 1 {
    affine.for %arg4 = 0 to 4 {
      affine.for %arg5 = 0 to 4 {
        affine.for %arg6 = 0 to 8 {
          %0 = affine.load %arg0[%arg3, %arg4, %arg6] : memref<1x4x8xf32>
          %1 = affine.load %arg1[%arg3, %arg6, %arg5] : memref<1x8x4xf32>
          %2 = affine.load %arg2[%arg3, %arg4, %arg5] : memref<1x4x4xf32>
          %3 = arith.mulf %0, %1 : f32
          %4 = arith.addf %2, %3 : f32
          affine.store %4, %arg2[%arg3, %arg4, %arg5] : memref<1x4x4xf32>
        }
      }
    }
  }
  return
}

// -----// IR Dump After ExpandStridedMetadata (expand-strided-metadata) //----- //
module attributes {soda.bambu.container_module, soda.container_module, tf.versions = {bad_consumers = [], min_consumer = 0 : i32, producer = 1482 : i32}} {
  func.func @main_kernel(%arg0: memref<1x4x8xf32> {llvm.noalias}, %arg1: memref<1x8x4xf32> {llvm.noalias}, %arg2: memref<1x4x4xf32> {llvm.noalias}) {
    cf.br ^bb1
  ^bb1:  // pred: ^bb0
    affine.for %arg3 = 0 to 1 {
      affine.for %arg4 = 0 to 4 {
        affine.for %arg5 = 0 to 4 {
          affine.for %arg6 = 0 to 8 {
            %0 = affine.load %arg0[%arg3, %arg4, %arg6] : memref<1x4x8xf32>
            %1 = affine.load %arg1[%arg3, %arg6, %arg5] : memref<1x8x4xf32>
            %2 = affine.load %arg2[%arg3, %arg4, %arg5] : memref<1x4x4xf32>
            %3 = arith.mulf %0, %1 : f32
            %4 = arith.addf %2, %3 : f32
            affine.store %4, %arg2[%arg3, %arg4, %arg5] : memref<1x4x4xf32>
          }
        }
      }
    }
    return
  }
}


// -----// IR Dump After AffineDataCopyGeneration (affine-data-copy-generate) //----- //
func.func @main_kernel(%arg0: memref<1x4x8xf32> {llvm.noalias}, %arg1: memref<1x8x4xf32> {llvm.noalias}, %arg2: memref<1x4x4xf32> {llvm.noalias}) {
  %c0 = arith.constant 0 : index
  %c0_0 = arith.constant 0 : index
  %c0_1 = arith.constant 0 : index
  %c0_2 = arith.constant 0 : index
  %c16 = arith.constant 16 : index
  %c0_3 = arith.constant 0 : index
  %c16_4 = arith.constant 16 : index
  %c0_5 = arith.constant 0 : index
  %c32 = arith.constant 32 : index
  %c0_6 = arith.constant 0 : index
  %c32_7 = arith.constant 32 : index
  %c0_8 = arith.constant 0 : index
  %c0_9 = arith.constant 0 : index
  cf.br ^bb1
^bb1:  // pred: ^bb0
  %alloc = memref.alloc() : memref<1x4x8xf32>
  affine.for %arg3 = 0 to 4 {
    affine.for %arg4 = 0 to 8 {
      %0 = affine.load %arg0[0, %arg3, %arg4] : memref<1x4x8xf32>
      affine.store %0, %alloc[0, %arg3, %arg4] : memref<1x4x8xf32>
    }
  }
  %alloc_10 = memref.alloc() : memref<1x8x4xf32>
  affine.for %arg3 = 0 to 8 {
    affine.for %arg4 = 0 to 4 {
      %0 = affine.load %arg1[0, %arg3, %arg4] : memref<1x8x4xf32>
      affine.store %0, %alloc_10[0, %arg3, %arg4] : memref<1x8x4xf32>
    }
  }
  %alloc_11 = memref.alloc() : memref<1x4x4xf32>
  affine.for %arg3 = 0 to 4 {
    affine.for %arg4 = 0 to 4 {
      %0 = affine.load %arg2[0, %arg3, %arg4] : memref<1x4x4xf32>
      affine.store %0, %alloc_11[0, %arg3, %arg4] : memref<1x4x4xf32>
    }
  }
  affine.for %arg3 = 0 to 1 {
    affine.for %arg4 = 0 to 4 {
      affine.for %arg5 = 0 to 4 {
        affine.for %arg6 = 0 to 8 {
          %0 = affine.load %alloc[%arg3, %arg4, %arg6] : memref<1x4x8xf32>
          %1 = affine.load %alloc_10[%arg3, %arg6, %arg5] : memref<1x8x4xf32>
          %2 = affine.load %alloc_11[%arg3, %arg4, %arg5] : memref<1x4x4xf32>
          %3 = arith.mulf %0, %1 : f32
          %4 = arith.addf %2, %3 : f32
          affine.store %4, %alloc_11[%arg3, %arg4, %arg5] : memref<1x4x4xf32>
        }
      }
    }
  }
  affine.for %arg3 = 0 to 4 {
    affine.for %arg4 = 0 to 4 {
      %0 = affine.load %alloc_11[0, %arg3, %arg4] : memref<1x4x4xf32>
      affine.store %0, %arg2[0, %arg3, %arg4] : memref<1x4x4xf32>
    }
  }
  memref.dealloc %alloc_11 : memref<1x4x4xf32>
  memref.dealloc %alloc_10 : memref<1x8x4xf32>
  memref.dealloc %alloc : memref<1x4x8xf32>
  return
}

// -----// IR Dump After EraseMemrefDealloc (erase-buffer-deallocation) //----- //
module attributes {soda.bambu.container_module, soda.container_module, tf.versions = {bad_consumers = [], min_consumer = 0 : i32, producer = 1482 : i32}} {
  func.func @main_kernel(%arg0: memref<1x4x8xf32> {llvm.noalias}, %arg1: memref<1x8x4xf32> {llvm.noalias}, %arg2: memref<1x4x4xf32> {llvm.noalias}) {
    cf.br ^bb1
  ^bb1:  // pred: ^bb0
    %alloc = memref.alloc() : memref<1x4x8xf32>
    affine.for %arg3 = 0 to 4 {
      affine.for %arg4 = 0 to 8 {
        %0 = affine.load %arg0[0, %arg3, %arg4] : memref<1x4x8xf32>
        affine.store %0, %alloc[0, %arg3, %arg4] : memref<1x4x8xf32>
      }
    }
    %alloc_0 = memref.alloc() : memref<1x8x4xf32>
    affine.for %arg3 = 0 to 8 {
      affine.for %arg4 = 0 to 4 {
        %0 = affine.load %arg1[0, %arg3, %arg4] : memref<1x8x4xf32>
        affine.store %0, %alloc_0[0, %arg3, %arg4] : memref<1x8x4xf32>
      }
    }
    %alloc_1 = memref.alloc() : memref<1x4x4xf32>
    affine.for %arg3 = 0 to 4 {
      affine.for %arg4 = 0 to 4 {
        %0 = affine.load %arg2[0, %arg3, %arg4] : memref<1x4x4xf32>
        affine.store %0, %alloc_1[0, %arg3, %arg4] : memref<1x4x4xf32>
      }
    }
    affine.for %arg3 = 0 to 1 {
      affine.for %arg4 = 0 to 4 {
        affine.for %arg5 = 0 to 4 {
          affine.for %arg6 = 0 to 8 {
            %0 = affine.load %alloc[%arg3, %arg4, %arg6] : memref<1x4x8xf32>
            %1 = affine.load %alloc_0[%arg3, %arg6, %arg5] : memref<1x8x4xf32>
            %2 = affine.load %alloc_1[%arg3, %arg4, %arg5] : memref<1x4x4xf32>
            %3 = arith.mulf %0, %1 : f32
            %4 = arith.addf %2, %3 : f32
            affine.store %4, %alloc_1[%arg3, %arg4, %arg5] : memref<1x4x4xf32>
          }
        }
      }
    }
    affine.for %arg3 = 0 to 4 {
      affine.for %arg4 = 0 to 4 {
        %0 = affine.load %alloc_1[0, %arg3, %arg4] : memref<1x4x4xf32>
        affine.store %0, %arg2[0, %arg3, %arg4] : memref<1x4x4xf32>
      }
    }
    return
  }
}


// -----// IR Dump After PromoteBuffersToStack (promote-buffers-to-stack) //----- //
func.func @main_kernel(%arg0: memref<1x4x8xf32> {llvm.noalias}, %arg1: memref<1x8x4xf32> {llvm.noalias}, %arg2: memref<1x4x4xf32> {llvm.noalias}) {
  cf.br ^bb1
^bb1:  // pred: ^bb0
  %alloca = memref.alloca() : memref<1x4x8xf32>
  affine.for %arg3 = 0 to 4 {
    affine.for %arg4 = 0 to 8 {
      %0 = affine.load %arg0[0, %arg3, %arg4] : memref<1x4x8xf32>
      affine.store %0, %alloca[0, %arg3, %arg4] : memref<1x4x8xf32>
    }
  }
  %alloca_0 = memref.alloca() : memref<1x8x4xf32>
  affine.for %arg3 = 0 to 8 {
    affine.for %arg4 = 0 to 4 {
      %0 = affine.load %arg1[0, %arg3, %arg4] : memref<1x8x4xf32>
      affine.store %0, %alloca_0[0, %arg3, %arg4] : memref<1x8x4xf32>
    }
  }
  %alloca_1 = memref.alloca() : memref<1x4x4xf32>
  affine.for %arg3 = 0 to 4 {
    affine.for %arg4 = 0 to 4 {
      %0 = affine.load %arg2[0, %arg3, %arg4] : memref<1x4x4xf32>
      affine.store %0, %alloca_1[0, %arg3, %arg4] : memref<1x4x4xf32>
    }
  }
  affine.for %arg3 = 0 to 1 {
    affine.for %arg4 = 0 to 4 {
      affine.for %arg5 = 0 to 4 {
        affine.for %arg6 = 0 to 8 {
          %0 = affine.load %alloca[%arg3, %arg4, %arg6] : memref<1x4x8xf32>
          %1 = affine.load %alloca_0[%arg3, %arg6, %arg5] : memref<1x8x4xf32>
          %2 = affine.load %alloca_1[%arg3, %arg4, %arg5] : memref<1x4x4xf32>
          %3 = arith.mulf %0, %1 : f32
          %4 = arith.addf %2, %3 : f32
          affine.store %4, %alloca_1[%arg3, %arg4, %arg5] : memref<1x4x4xf32>
        }
      }
    }
  }
  affine.for %arg3 = 0 to 4 {
    affine.for %arg4 = 0 to 4 {
      %0 = affine.load %alloca_1[0, %arg3, %arg4] : memref<1x4x4xf32>
      affine.store %0, %arg2[0, %arg3, %arg4] : memref<1x4x4xf32>
    }
  }
  return
}

// -----// IR Dump After AffineLoopUnroll (affine-loop-unroll) //----- //
func.func @main_kernel(%arg0: memref<1x4x8xf32> {llvm.noalias}, %arg1: memref<1x8x4xf32> {llvm.noalias}, %arg2: memref<1x4x4xf32> {llvm.noalias}) {
  %c0 = arith.constant 0 : index
  %c0_0 = arith.constant 0 : index
  %c0_1 = arith.constant 0 : index
  %c0_2 = arith.constant 0 : index
  %c0_3 = arith.constant 0 : index
  cf.br ^bb1
^bb1:  // pred: ^bb0
  %alloca = memref.alloca() : memref<1x4x8xf32>
  affine.for %arg3 = 0 to 4 {
    %0 = affine.load %arg0[0, %arg3, %c0_3] : memref<1x4x8xf32>
    affine.store %0, %alloca[0, %arg3, %c0_3] : memref<1x4x8xf32>
    %1 = affine.apply affine_map<(d0) -> (d0 + 1)>(%c0_3)
    %2 = affine.load %arg0[0, %arg3, %1] : memref<1x4x8xf32>
    affine.store %2, %alloca[0, %arg3, %1] : memref<1x4x8xf32>
    %3 = affine.apply affine_map<(d0) -> (d0 + 2)>(%c0_3)
    %4 = affine.load %arg0[0, %arg3, %3] : memref<1x4x8xf32>
    affine.store %4, %alloca[0, %arg3, %3] : memref<1x4x8xf32>
    %5 = affine.apply affine_map<(d0) -> (d0 + 3)>(%c0_3)
    %6 = affine.load %arg0[0, %arg3, %5] : memref<1x4x8xf32>
    affine.store %6, %alloca[0, %arg3, %5] : memref<1x4x8xf32>
    %7 = affine.apply affine_map<(d0) -> (d0 + 4)>(%c0_3)
    %8 = affine.load %arg0[0, %arg3, %7] : memref<1x4x8xf32>
    affine.store %8, %alloca[0, %arg3, %7] : memref<1x4x8xf32>
    %9 = affine.apply affine_map<(d0) -> (d0 + 5)>(%c0_3)
    %10 = affine.load %arg0[0, %arg3, %9] : memref<1x4x8xf32>
    affine.store %10, %alloca[0, %arg3, %9] : memref<1x4x8xf32>
    %11 = affine.apply affine_map<(d0) -> (d0 + 6)>(%c0_3)
    %12 = affine.load %arg0[0, %arg3, %11] : memref<1x4x8xf32>
    affine.store %12, %alloca[0, %arg3, %11] : memref<1x4x8xf32>
    %13 = affine.apply affine_map<(d0) -> (d0 + 7)>(%c0_3)
    %14 = affine.load %arg0[0, %arg3, %13] : memref<1x4x8xf32>
    affine.store %14, %alloca[0, %arg3, %13] : memref<1x4x8xf32>
  }
  %alloca_4 = memref.alloca() : memref<1x8x4xf32>
  affine.for %arg3 = 0 to 8 {
    %0 = affine.load %arg1[0, %arg3, %c0_2] : memref<1x8x4xf32>
    affine.store %0, %alloca_4[0, %arg3, %c0_2] : memref<1x8x4xf32>
    %1 = affine.apply affine_map<(d0) -> (d0 + 1)>(%c0_2)
    %2 = affine.load %arg1[0, %arg3, %1] : memref<1x8x4xf32>
    affine.store %2, %alloca_4[0, %arg3, %1] : memref<1x8x4xf32>
    %3 = affine.apply affine_map<(d0) -> (d0 + 2)>(%c0_2)
    %4 = affine.load %arg1[0, %arg3, %3] : memref<1x8x4xf32>
    affine.store %4, %alloca_4[0, %arg3, %3] : memref<1x8x4xf32>
    %5 = affine.apply affine_map<(d0) -> (d0 + 3)>(%c0_2)
    %6 = affine.load %arg1[0, %arg3, %5] : memref<1x8x4xf32>
    affine.store %6, %alloca_4[0, %arg3, %5] : memref<1x8x4xf32>
  }
  %alloca_5 = memref.alloca() : memref<1x4x4xf32>
  affine.for %arg3 = 0 to 4 {
    %0 = affine.load %arg2[0, %arg3, %c0_1] : memref<1x4x4xf32>
    affine.store %0, %alloca_5[0, %arg3, %c0_1] : memref<1x4x4xf32>
    %1 = affine.apply affine_map<(d0) -> (d0 + 1)>(%c0_1)
    %2 = affine.load %arg2[0, %arg3, %1] : memref<1x4x4xf32>
    affine.store %2, %alloca_5[0, %arg3, %1] : memref<1x4x4xf32>
    %3 = affine.apply affine_map<(d0) -> (d0 + 2)>(%c0_1)
    %4 = affine.load %arg2[0, %arg3, %3] : memref<1x4x4xf32>
    affine.store %4, %alloca_5[0, %arg3, %3] : memref<1x4x4xf32>
    %5 = affine.apply affine_map<(d0) -> (d0 + 3)>(%c0_1)
    %6 = affine.load %arg2[0, %arg3, %5] : memref<1x4x4xf32>
    affine.store %6, %alloca_5[0, %arg3, %5] : memref<1x4x4xf32>
  }
  affine.for %arg3 = 0 to 1 {
    affine.for %arg4 = 0 to 4 {
      affine.for %arg5 = 0 to 4 {
        %0 = affine.load %alloca[%arg3, %arg4, %c0_0] : memref<1x4x8xf32>
        %1 = affine.load %alloca_4[%arg3, %c0_0, %arg5] : memref<1x8x4xf32>
        %2 = affine.load %alloca_5[%arg3, %arg4, %arg5] : memref<1x4x4xf32>
        %3 = arith.mulf %0, %1 : f32
        %4 = arith.addf %2, %3 : f32
        affine.store %4, %alloca_5[%arg3, %arg4, %arg5] : memref<1x4x4xf32>
        %5 = affine.apply affine_map<(d0) -> (d0 + 1)>(%c0_0)
        %6 = affine.load %alloca[%arg3, %arg4, %5] : memref<1x4x8xf32>
        %7 = affine.load %alloca_4[%arg3, %5, %arg5] : memref<1x8x4xf32>
        %8 = affine.load %alloca_5[%arg3, %arg4, %arg5] : memref<1x4x4xf32>
        %9 = arith.mulf %6, %7 : f32
        %10 = arith.addf %8, %9 : f32
        affine.store %10, %alloca_5[%arg3, %arg4, %arg5] : memref<1x4x4xf32>
        %11 = affine.apply affine_map<(d0) -> (d0 + 2)>(%c0_0)
        %12 = affine.load %alloca[%arg3, %arg4, %11] : memref<1x4x8xf32>
        %13 = affine.load %alloca_4[%arg3, %11, %arg5] : memref<1x8x4xf32>
        %14 = affine.load %alloca_5[%arg3, %arg4, %arg5] : memref<1x4x4xf32>
        %15 = arith.mulf %12, %13 : f32
        %16 = arith.addf %14, %15 : f32
        affine.store %16, %alloca_5[%arg3, %arg4, %arg5] : memref<1x4x4xf32>
        %17 = affine.apply affine_map<(d0) -> (d0 + 3)>(%c0_0)
        %18 = affine.load %alloca[%arg3, %arg4, %17] : memref<1x4x8xf32>
        %19 = affine.load %alloca_4[%arg3, %17, %arg5] : memref<1x8x4xf32>
        %20 = affine.load %alloca_5[%arg3, %arg4, %arg5] : memref<1x4x4xf32>
        %21 = arith.mulf %18, %19 : f32
        %22 = arith.addf %20, %21 : f32
        affine.store %22, %alloca_5[%arg3, %arg4, %arg5] : memref<1x4x4xf32>
        %23 = affine.apply affine_map<(d0) -> (d0 + 4)>(%c0_0)
        %24 = affine.load %alloca[%arg3, %arg4, %23] : memref<1x4x8xf32>
        %25 = affine.load %alloca_4[%arg3, %23, %arg5] : memref<1x8x4xf32>
        %26 = affine.load %alloca_5[%arg3, %arg4, %arg5] : memref<1x4x4xf32>
        %27 = arith.mulf %24, %25 : f32
        %28 = arith.addf %26, %27 : f32
        affine.store %28, %alloca_5[%arg3, %arg4, %arg5] : memref<1x4x4xf32>
        %29 = affine.apply affine_map<(d0) -> (d0 + 5)>(%c0_0)
        %30 = affine.load %alloca[%arg3, %arg4, %29] : memref<1x4x8xf32>
        %31 = affine.load %alloca_4[%arg3, %29, %arg5] : memref<1x8x4xf32>
        %32 = affine.load %alloca_5[%arg3, %arg4, %arg5] : memref<1x4x4xf32>
        %33 = arith.mulf %30, %31 : f32
        %34 = arith.addf %32, %33 : f32
        affine.store %34, %alloca_5[%arg3, %arg4, %arg5] : memref<1x4x4xf32>
        %35 = affine.apply affine_map<(d0) -> (d0 + 6)>(%c0_0)
        %36 = affine.load %alloca[%arg3, %arg4, %35] : memref<1x4x8xf32>
        %37 = affine.load %alloca_4[%arg3, %35, %arg5] : memref<1x8x4xf32>
        %38 = affine.load %alloca_5[%arg3, %arg4, %arg5] : memref<1x4x4xf32>
        %39 = arith.mulf %36, %37 : f32
        %40 = arith.addf %38, %39 : f32
        affine.store %40, %alloca_5[%arg3, %arg4, %arg5] : memref<1x4x4xf32>
        %41 = affine.apply affine_map<(d0) -> (d0 + 7)>(%c0_0)
        %42 = affine.load %alloca[%arg3, %arg4, %41] : memref<1x4x8xf32>
        %43 = affine.load %alloca_4[%arg3, %41, %arg5] : memref<1x8x4xf32>
        %44 = affine.load %alloca_5[%arg3, %arg4, %arg5] : memref<1x4x4xf32>
        %45 = arith.mulf %42, %43 : f32
        %46 = arith.addf %44, %45 : f32
        affine.store %46, %alloca_5[%arg3, %arg4, %arg5] : memref<1x4x4xf32>
      }
    }
  }
  affine.for %arg3 = 0 to 4 {
    %0 = affine.load %alloca_5[0, %arg3, %c0] : memref<1x4x4xf32>
    affine.store %0, %arg2[0, %arg3, %c0] : memref<1x4x4xf32>
    %1 = affine.apply affine_map<(d0) -> (d0 + 1)>(%c0)
    %2 = affine.load %alloca_5[0, %arg3, %1] : memref<1x4x4xf32>
    affine.store %2, %arg2[0, %arg3, %1] : memref<1x4x4xf32>
    %3 = affine.apply affine_map<(d0) -> (d0 + 2)>(%c0)
    %4 = affine.load %alloca_5[0, %arg3, %3] : memref<1x4x4xf32>
    affine.store %4, %arg2[0, %arg3, %3] : memref<1x4x4xf32>
    %5 = affine.apply affine_map<(d0) -> (d0 + 3)>(%c0)
    %6 = affine.load %alloca_5[0, %arg3, %5] : memref<1x4x4xf32>
    affine.store %6, %arg2[0, %arg3, %5] : memref<1x4x4xf32>
  }
  return
}

// -----// IR Dump After AffineLoopUnroll (affine-loop-unroll) //----- //
func.func @main_kernel(%arg0: memref<1x4x8xf32> {llvm.noalias}, %arg1: memref<1x8x4xf32> {llvm.noalias}, %arg2: memref<1x4x4xf32> {llvm.noalias}) {
  %c0 = arith.constant 0 : index
  %c0_0 = arith.constant 0 : index
  %c0_1 = arith.constant 0 : index
  %c0_2 = arith.constant 0 : index
  %c0_3 = arith.constant 0 : index
  %c0_4 = arith.constant 0 : index
  %c0_5 = arith.constant 0 : index
  %c0_6 = arith.constant 0 : index
  %c0_7 = arith.constant 0 : index
  %c0_8 = arith.constant 0 : index
  cf.br ^bb1
^bb1:  // pred: ^bb0
  %alloca = memref.alloca() : memref<1x4x8xf32>
  %0 = affine.load %arg0[0, %c0_3, %c0_8] : memref<1x4x8xf32>
  affine.store %0, %alloca[0, %c0_3, %c0_8] : memref<1x4x8xf32>
  %1 = affine.apply affine_map<(d0) -> (d0 + 1)>(%c0_8)
  %2 = affine.load %arg0[0, %c0_3, %1] : memref<1x4x8xf32>
  affine.store %2, %alloca[0, %c0_3, %1] : memref<1x4x8xf32>
  %3 = affine.apply affine_map<(d0) -> (d0 + 2)>(%c0_8)
  %4 = affine.load %arg0[0, %c0_3, %3] : memref<1x4x8xf32>
  affine.store %4, %alloca[0, %c0_3, %3] : memref<1x4x8xf32>
  %5 = affine.apply affine_map<(d0) -> (d0 + 3)>(%c0_8)
  %6 = affine.load %arg0[0, %c0_3, %5] : memref<1x4x8xf32>
  affine.store %6, %alloca[0, %c0_3, %5] : memref<1x4x8xf32>
  %7 = affine.apply affine_map<(d0) -> (d0 + 4)>(%c0_8)
  %8 = affine.load %arg0[0, %c0_3, %7] : memref<1x4x8xf32>
  affine.store %8, %alloca[0, %c0_3, %7] : memref<1x4x8xf32>
  %9 = affine.apply affine_map<(d0) -> (d0 + 5)>(%c0_8)
  %10 = affine.load %arg0[0, %c0_3, %9] : memref<1x4x8xf32>
  affine.store %10, %alloca[0, %c0_3, %9] : memref<1x4x8xf32>
  %11 = affine.apply affine_map<(d0) -> (d0 + 6)>(%c0_8)
  %12 = affine.load %arg0[0, %c0_3, %11] : memref<1x4x8xf32>
  affine.store %12, %alloca[0, %c0_3, %11] : memref<1x4x8xf32>
  %13 = affine.apply affine_map<(d0) -> (d0 + 7)>(%c0_8)
  %14 = affine.load %arg0[0, %c0_3, %13] : memref<1x4x8xf32>
  affine.store %14, %alloca[0, %c0_3, %13] : memref<1x4x8xf32>
  %15 = affine.apply affine_map<(d0) -> (d0 + 1)>(%c0_3)
  %16 = affine.load %arg0[0, %15, %c0_8] : memref<1x4x8xf32>
  affine.store %16, %alloca[0, %15, %c0_8] : memref<1x4x8xf32>
  %17 = affine.apply affine_map<(d0) -> (d0 + 1)>(%c0_8)
  %18 = affine.load %arg0[0, %15, %17] : memref<1x4x8xf32>
  affine.store %18, %alloca[0, %15, %17] : memref<1x4x8xf32>
  %19 = affine.apply affine_map<(d0) -> (d0 + 2)>(%c0_8)
  %20 = affine.load %arg0[0, %15, %19] : memref<1x4x8xf32>
  affine.store %20, %alloca[0, %15, %19] : memref<1x4x8xf32>
  %21 = affine.apply affine_map<(d0) -> (d0 + 3)>(%c0_8)
  %22 = affine.load %arg0[0, %15, %21] : memref<1x4x8xf32>
  affine.store %22, %alloca[0, %15, %21] : memref<1x4x8xf32>
  %23 = affine.apply affine_map<(d0) -> (d0 + 4)>(%c0_8)
  %24 = affine.load %arg0[0, %15, %23] : memref<1x4x8xf32>
  affine.store %24, %alloca[0, %15, %23] : memref<1x4x8xf32>
  %25 = affine.apply affine_map<(d0) -> (d0 + 5)>(%c0_8)
  %26 = affine.load %arg0[0, %15, %25] : memref<1x4x8xf32>
  affine.store %26, %alloca[0, %15, %25] : memref<1x4x8xf32>
  %27 = affine.apply affine_map<(d0) -> (d0 + 6)>(%c0_8)
  %28 = affine.load %arg0[0, %15, %27] : memref<1x4x8xf32>
  affine.store %28, %alloca[0, %15, %27] : memref<1x4x8xf32>
  %29 = affine.apply affine_map<(d0) -> (d0 + 7)>(%c0_8)
  %30 = affine.load %arg0[0, %15, %29] : memref<1x4x8xf32>
  affine.store %30, %alloca[0, %15, %29] : memref<1x4x8xf32>
  %31 = affine.apply affine_map<(d0) -> (d0 + 2)>(%c0_3)
  %32 = affine.load %arg0[0, %31, %c0_8] : memref<1x4x8xf32>
  affine.store %32, %alloca[0, %31, %c0_8] : memref<1x4x8xf32>
  %33 = affine.apply affine_map<(d0) -> (d0 + 1)>(%c0_8)
  %34 = affine.load %arg0[0, %31, %33] : memref<1x4x8xf32>
  affine.store %34, %alloca[0, %31, %33] : memref<1x4x8xf32>
  %35 = affine.apply affine_map<(d0) -> (d0 + 2)>(%c0_8)
  %36 = affine.load %arg0[0, %31, %35] : memref<1x4x8xf32>
  affine.store %36, %alloca[0, %31, %35] : memref<1x4x8xf32>
  %37 = affine.apply affine_map<(d0) -> (d0 + 3)>(%c0_8)
  %38 = affine.load %arg0[0, %31, %37] : memref<1x4x8xf32>
  affine.store %38, %alloca[0, %31, %37] : memref<1x4x8xf32>
  %39 = affine.apply affine_map<(d0) -> (d0 + 4)>(%c0_8)
  %40 = affine.load %arg0[0, %31, %39] : memref<1x4x8xf32>
  affine.store %40, %alloca[0, %31, %39] : memref<1x4x8xf32>
  %41 = affine.apply affine_map<(d0) -> (d0 + 5)>(%c0_8)
  %42 = affine.load %arg0[0, %31, %41] : memref<1x4x8xf32>
  affine.store %42, %alloca[0, %31, %41] : memref<1x4x8xf32>
  %43 = affine.apply affine_map<(d0) -> (d0 + 6)>(%c0_8)
  %44 = affine.load %arg0[0, %31, %43] : memref<1x4x8xf32>
  affine.store %44, %alloca[0, %31, %43] : memref<1x4x8xf32>
  %45 = affine.apply affine_map<(d0) -> (d0 + 7)>(%c0_8)
  %46 = affine.load %arg0[0, %31, %45] : memref<1x4x8xf32>
  affine.store %46, %alloca[0, %31, %45] : memref<1x4x8xf32>
  %47 = affine.apply affine_map<(d0) -> (d0 + 3)>(%c0_3)
  %48 = affine.load %arg0[0, %47, %c0_8] : memref<1x4x8xf32>
  affine.store %48, %alloca[0, %47, %c0_8] : memref<1x4x8xf32>
  %49 = affine.apply affine_map<(d0) -> (d0 + 1)>(%c0_8)
  %50 = affine.load %arg0[0, %47, %49] : memref<1x4x8xf32>
  affine.store %50, %alloca[0, %47, %49] : memref<1x4x8xf32>
  %51 = affine.apply affine_map<(d0) -> (d0 + 2)>(%c0_8)
  %52 = affine.load %arg0[0, %47, %51] : memref<1x4x8xf32>
  affine.store %52, %alloca[0, %47, %51] : memref<1x4x8xf32>
  %53 = affine.apply affine_map<(d0) -> (d0 + 3)>(%c0_8)
  %54 = affine.load %arg0[0, %47, %53] : memref<1x4x8xf32>
  affine.store %54, %alloca[0, %47, %53] : memref<1x4x8xf32>
  %55 = affine.apply affine_map<(d0) -> (d0 + 4)>(%c0_8)
  %56 = affine.load %arg0[0, %47, %55] : memref<1x4x8xf32>
  affine.store %56, %alloca[0, %47, %55] : memref<1x4x8xf32>
  %57 = affine.apply affine_map<(d0) -> (d0 + 5)>(%c0_8)
  %58 = affine.load %arg0[0, %47, %57] : memref<1x4x8xf32>
  affine.store %58, %alloca[0, %47, %57] : memref<1x4x8xf32>
  %59 = affine.apply affine_map<(d0) -> (d0 + 6)>(%c0_8)
  %60 = affine.load %arg0[0, %47, %59] : memref<1x4x8xf32>
  affine.store %60, %alloca[0, %47, %59] : memref<1x4x8xf32>
  %61 = affine.apply affine_map<(d0) -> (d0 + 7)>(%c0_8)
  %62 = affine.load %arg0[0, %47, %61] : memref<1x4x8xf32>
  affine.store %62, %alloca[0, %47, %61] : memref<1x4x8xf32>
  %alloca_9 = memref.alloca() : memref<1x8x4xf32>
  %63 = affine.load %arg1[0, %c0_2, %c0_7] : memref<1x8x4xf32>
  affine.store %63, %alloca_9[0, %c0_2, %c0_7] : memref<1x8x4xf32>
  %64 = affine.apply affine_map<(d0) -> (d0 + 1)>(%c0_7)
  %65 = affine.load %arg1[0, %c0_2, %64] : memref<1x8x4xf32>
  affine.store %65, %alloca_9[0, %c0_2, %64] : memref<1x8x4xf32>
  %66 = affine.apply affine_map<(d0) -> (d0 + 2)>(%c0_7)
  %67 = affine.load %arg1[0, %c0_2, %66] : memref<1x8x4xf32>
  affine.store %67, %alloca_9[0, %c0_2, %66] : memref<1x8x4xf32>
  %68 = affine.apply affine_map<(d0) -> (d0 + 3)>(%c0_7)
  %69 = affine.load %arg1[0, %c0_2, %68] : memref<1x8x4xf32>
  affine.store %69, %alloca_9[0, %c0_2, %68] : memref<1x8x4xf32>
  %70 = affine.apply affine_map<(d0) -> (d0 + 1)>(%c0_2)
  %71 = affine.load %arg1[0, %70, %c0_7] : memref<1x8x4xf32>
  affine.store %71, %alloca_9[0, %70, %c0_7] : memref<1x8x4xf32>
  %72 = affine.apply affine_map<(d0) -> (d0 + 1)>(%c0_7)
  %73 = affine.load %arg1[0, %70, %72] : memref<1x8x4xf32>
  affine.store %73, %alloca_9[0, %70, %72] : memref<1x8x4xf32>
  %74 = affine.apply affine_map<(d0) -> (d0 + 2)>(%c0_7)
  %75 = affine.load %arg1[0, %70, %74] : memref<1x8x4xf32>
  affine.store %75, %alloca_9[0, %70, %74] : memref<1x8x4xf32>
  %76 = affine.apply affine_map<(d0) -> (d0 + 3)>(%c0_7)
  %77 = affine.load %arg1[0, %70, %76] : memref<1x8x4xf32>
  affine.store %77, %alloca_9[0, %70, %76] : memref<1x8x4xf32>
  %78 = affine.apply affine_map<(d0) -> (d0 + 2)>(%c0_2)
  %79 = affine.load %arg1[0, %78, %c0_7] : memref<1x8x4xf32>
  affine.store %79, %alloca_9[0, %78, %c0_7] : memref<1x8x4xf32>
  %80 = affine.apply affine_map<(d0) -> (d0 + 1)>(%c0_7)
  %81 = affine.load %arg1[0, %78, %80] : memref<1x8x4xf32>
  affine.store %81, %alloca_9[0, %78, %80] : memref<1x8x4xf32>
  %82 = affine.apply affine_map<(d0) -> (d0 + 2)>(%c0_7)
  %83 = affine.load %arg1[0, %78, %82] : memref<1x8x4xf32>
  affine.store %83, %alloca_9[0, %78, %82] : memref<1x8x4xf32>
  %84 = affine.apply affine_map<(d0) -> (d0 + 3)>(%c0_7)
  %85 = affine.load %arg1[0, %78, %84] : memref<1x8x4xf32>
  affine.store %85, %alloca_9[0, %78, %84] : memref<1x8x4xf32>
  %86 = affine.apply affine_map<(d0) -> (d0 + 3)>(%c0_2)
  %87 = affine.load %arg1[0, %86, %c0_7] : memref<1x8x4xf32>
  affine.store %87, %alloca_9[0, %86, %c0_7] : memref<1x8x4xf32>
  %88 = affine.apply affine_map<(d0) -> (d0 + 1)>(%c0_7)
  %89 = affine.load %arg1[0, %86, %88] : memref<1x8x4xf32>
  affine.store %89, %alloca_9[0, %86, %88] : memref<1x8x4xf32>
  %90 = affine.apply affine_map<(d0) -> (d0 + 2)>(%c0_7)
  %91 = affine.load %arg1[0, %86, %90] : memref<1x8x4xf32>
  affine.store %91, %alloca_9[0, %86, %90] : memref<1x8x4xf32>
  %92 = affine.apply affine_map<(d0) -> (d0 + 3)>(%c0_7)
  %93 = affine.load %arg1[0, %86, %92] : memref<1x8x4xf32>
  affine.store %93, %alloca_9[0, %86, %92] : memref<1x8x4xf32>
  %94 = affine.apply affine_map<(d0) -> (d0 + 4)>(%c0_2)
  %95 = affine.load %arg1[0, %94, %c0_7] : memref<1x8x4xf32>
  affine.store %95, %alloca_9[0, %94, %c0_7] : memref<1x8x4xf32>
  %96 = affine.apply affine_map<(d0) -> (d0 + 1)>(%c0_7)
  %97 = affine.load %arg1[0, %94, %96] : memref<1x8x4xf32>
  affine.store %97, %alloca_9[0, %94, %96] : memref<1x8x4xf32>
  %98 = affine.apply affine_map<(d0) -> (d0 + 2)>(%c0_7)
  %99 = affine.load %arg1[0, %94, %98] : memref<1x8x4xf32>
  affine.store %99, %alloca_9[0, %94, %98] : memref<1x8x4xf32>
  %100 = affine.apply affine_map<(d0) -> (d0 + 3)>(%c0_7)
  %101 = affine.load %arg1[0, %94, %100] : memref<1x8x4xf32>
  affine.store %101, %alloca_9[0, %94, %100] : memref<1x8x4xf32>
  %102 = affine.apply affine_map<(d0) -> (d0 + 5)>(%c0_2)
  %103 = affine.load %arg1[0, %102, %c0_7] : memref<1x8x4xf32>
  affine.store %103, %alloca_9[0, %102, %c0_7] : memref<1x8x4xf32>
  %104 = affine.apply affine_map<(d0) -> (d0 + 1)>(%c0_7)
  %105 = affine.load %arg1[0, %102, %104] : memref<1x8x4xf32>
  affine.store %105, %alloca_9[0, %102, %104] : memref<1x8x4xf32>
  %106 = affine.apply affine_map<(d0) -> (d0 + 2)>(%c0_7)
  %107 = affine.load %arg1[0, %102, %106] : memref<1x8x4xf32>
  affine.store %107, %alloca_9[0, %102, %106] : memref<1x8x4xf32>
  %108 = affine.apply affine_map<(d0) -> (d0 + 3)>(%c0_7)
  %109 = affine.load %arg1[0, %102, %108] : memref<1x8x4xf32>
  affine.store %109, %alloca_9[0, %102, %108] : memref<1x8x4xf32>
  %110 = affine.apply affine_map<(d0) -> (d0 + 6)>(%c0_2)
  %111 = affine.load %arg1[0, %110, %c0_7] : memref<1x8x4xf32>
  affine.store %111, %alloca_9[0, %110, %c0_7] : memref<1x8x4xf32>
  %112 = affine.apply affine_map<(d0) -> (d0 + 1)>(%c0_7)
  %113 = affine.load %arg1[0, %110, %112] : memref<1x8x4xf32>
  affine.store %113, %alloca_9[0, %110, %112] : memref<1x8x4xf32>
  %114 = affine.apply affine_map<(d0) -> (d0 + 2)>(%c0_7)
  %115 = affine.load %arg1[0, %110, %114] : memref<1x8x4xf32>
  affine.store %115, %alloca_9[0, %110, %114] : memref<1x8x4xf32>
  %116 = affine.apply affine_map<(d0) -> (d0 + 3)>(%c0_7)
  %117 = affine.load %arg1[0, %110, %116] : memref<1x8x4xf32>
  affine.store %117, %alloca_9[0, %110, %116] : memref<1x8x4xf32>
  %118 = affine.apply affine_map<(d0) -> (d0 + 7)>(%c0_2)
  %119 = affine.load %arg1[0, %118, %c0_7] : memref<1x8x4xf32>
  affine.store %119, %alloca_9[0, %118, %c0_7] : memref<1x8x4xf32>
  %120 = affine.apply affine_map<(d0) -> (d0 + 1)>(%c0_7)
  %121 = affine.load %arg1[0, %118, %120] : memref<1x8x4xf32>
  affine.store %121, %alloca_9[0, %118, %120] : memref<1x8x4xf32>
  %122 = affine.apply affine_map<(d0) -> (d0 + 2)>(%c0_7)
  %123 = affine.load %arg1[0, %118, %122] : memref<1x8x4xf32>
  affine.store %123, %alloca_9[0, %118, %122] : memref<1x8x4xf32>
  %124 = affine.apply affine_map<(d0) -> (d0 + 3)>(%c0_7)
  %125 = affine.load %arg1[0, %118, %124] : memref<1x8x4xf32>
  affine.store %125, %alloca_9[0, %118, %124] : memref<1x8x4xf32>
  %alloca_10 = memref.alloca() : memref<1x4x4xf32>
  %126 = affine.load %arg2[0, %c0_1, %c0_6] : memref<1x4x4xf32>
  affine.store %126, %alloca_10[0, %c0_1, %c0_6] : memref<1x4x4xf32>
  %127 = affine.apply affine_map<(d0) -> (d0 + 1)>(%c0_6)
  %128 = affine.load %arg2[0, %c0_1, %127] : memref<1x4x4xf32>
  affine.store %128, %alloca_10[0, %c0_1, %127] : memref<1x4x4xf32>
  %129 = affine.apply affine_map<(d0) -> (d0 + 2)>(%c0_6)
  %130 = affine.load %arg2[0, %c0_1, %129] : memref<1x4x4xf32>
  affine.store %130, %alloca_10[0, %c0_1, %129] : memref<1x4x4xf32>
  %131 = affine.apply affine_map<(d0) -> (d0 + 3)>(%c0_6)
  %132 = affine.load %arg2[0, %c0_1, %131] : memref<1x4x4xf32>
  affine.store %132, %alloca_10[0, %c0_1, %131] : memref<1x4x4xf32>
  %133 = affine.apply affine_map<(d0) -> (d0 + 1)>(%c0_1)
  %134 = affine.load %arg2[0, %133, %c0_6] : memref<1x4x4xf32>
  affine.store %134, %alloca_10[0, %133, %c0_6] : memref<1x4x4xf32>
  %135 = affine.apply affine_map<(d0) -> (d0 + 1)>(%c0_6)
  %136 = affine.load %arg2[0, %133, %135] : memref<1x4x4xf32>
  affine.store %136, %alloca_10[0, %133, %135] : memref<1x4x4xf32>
  %137 = affine.apply affine_map<(d0) -> (d0 + 2)>(%c0_6)
  %138 = affine.load %arg2[0, %133, %137] : memref<1x4x4xf32>
  affine.store %138, %alloca_10[0, %133, %137] : memref<1x4x4xf32>
  %139 = affine.apply affine_map<(d0) -> (d0 + 3)>(%c0_6)
  %140 = affine.load %arg2[0, %133, %139] : memref<1x4x4xf32>
  affine.store %140, %alloca_10[0, %133, %139] : memref<1x4x4xf32>
  %141 = affine.apply affine_map<(d0) -> (d0 + 2)>(%c0_1)
  %142 = affine.load %arg2[0, %141, %c0_6] : memref<1x4x4xf32>
  affine.store %142, %alloca_10[0, %141, %c0_6] : memref<1x4x4xf32>
  %143 = affine.apply affine_map<(d0) -> (d0 + 1)>(%c0_6)
  %144 = affine.load %arg2[0, %141, %143] : memref<1x4x4xf32>
  affine.store %144, %alloca_10[0, %141, %143] : memref<1x4x4xf32>
  %145 = affine.apply affine_map<(d0) -> (d0 + 2)>(%c0_6)
  %146 = affine.load %arg2[0, %141, %145] : memref<1x4x4xf32>
  affine.store %146, %alloca_10[0, %141, %145] : memref<1x4x4xf32>
  %147 = affine.apply affine_map<(d0) -> (d0 + 3)>(%c0_6)
  %148 = affine.load %arg2[0, %141, %147] : memref<1x4x4xf32>
  affine.store %148, %alloca_10[0, %141, %147] : memref<1x4x4xf32>
  %149 = affine.apply affine_map<(d0) -> (d0 + 3)>(%c0_1)
  %150 = affine.load %arg2[0, %149, %c0_6] : memref<1x4x4xf32>
  affine.store %150, %alloca_10[0, %149, %c0_6] : memref<1x4x4xf32>
  %151 = affine.apply affine_map<(d0) -> (d0 + 1)>(%c0_6)
  %152 = affine.load %arg2[0, %149, %151] : memref<1x4x4xf32>
  affine.store %152, %alloca_10[0, %149, %151] : memref<1x4x4xf32>
  %153 = affine.apply affine_map<(d0) -> (d0 + 2)>(%c0_6)
  %154 = affine.load %arg2[0, %149, %153] : memref<1x4x4xf32>
  affine.store %154, %alloca_10[0, %149, %153] : memref<1x4x4xf32>
  %155 = affine.apply affine_map<(d0) -> (d0 + 3)>(%c0_6)
  %156 = affine.load %arg2[0, %149, %155] : memref<1x4x4xf32>
  affine.store %156, %alloca_10[0, %149, %155] : memref<1x4x4xf32>
  affine.for %arg3 = 0 to 1 {
    affine.for %arg4 = 0 to 4 {
      %188 = affine.load %alloca[%arg3, %arg4, %c0_5] : memref<1x4x8xf32>
      %189 = affine.load %alloca_9[%arg3, %c0_5, %c0_0] : memref<1x8x4xf32>
      %190 = affine.load %alloca_10[%arg3, %arg4, %c0_0] : memref<1x4x4xf32>
      %191 = arith.mulf %188, %189 : f32
      %192 = arith.addf %190, %191 : f32
      affine.store %192, %alloca_10[%arg3, %arg4, %c0_0] : memref<1x4x4xf32>
      %193 = affine.apply affine_map<(d0) -> (d0 + 1)>(%c0_5)
      %194 = affine.load %alloca[%arg3, %arg4, %193] : memref<1x4x8xf32>
      %195 = affine.load %alloca_9[%arg3, %193, %c0_0] : memref<1x8x4xf32>
      %196 = affine.load %alloca_10[%arg3, %arg4, %c0_0] : memref<1x4x4xf32>
      %197 = arith.mulf %194, %195 : f32
      %198 = arith.addf %196, %197 : f32
      affine.store %198, %alloca_10[%arg3, %arg4, %c0_0] : memref<1x4x4xf32>
      %199 = affine.apply affine_map<(d0) -> (d0 + 2)>(%c0_5)
      %200 = affine.load %alloca[%arg3, %arg4, %199] : memref<1x4x8xf32>
      %201 = affine.load %alloca_9[%arg3, %199, %c0_0] : memref<1x8x4xf32>
      %202 = affine.load %alloca_10[%arg3, %arg4, %c0_0] : memref<1x4x4xf32>
      %203 = arith.mulf %200, %201 : f32
      %204 = arith.addf %202, %203 : f32
      affine.store %204, %alloca_10[%arg3, %arg4, %c0_0] : memref<1x4x4xf32>
      %205 = affine.apply affine_map<(d0) -> (d0 + 3)>(%c0_5)
      %206 = affine.load %alloca[%arg3, %arg4, %205] : memref<1x4x8xf32>
      %207 = affine.load %alloca_9[%arg3, %205, %c0_0] : memref<1x8x4xf32>
      %208 = affine.load %alloca_10[%arg3, %arg4, %c0_0] : memref<1x4x4xf32>
      %209 = arith.mulf %206, %207 : f32
      %210 = arith.addf %208, %209 : f32
      affine.store %210, %alloca_10[%arg3, %arg4, %c0_0] : memref<1x4x4xf32>
      %211 = affine.apply affine_map<(d0) -> (d0 + 4)>(%c0_5)
      %212 = affine.load %alloca[%arg3, %arg4, %211] : memref<1x4x8xf32>
      %213 = affine.load %alloca_9[%arg3, %211, %c0_0] : memref<1x8x4xf32>
      %214 = affine.load %alloca_10[%arg3, %arg4, %c0_0] : memref<1x4x4xf32>
      %215 = arith.mulf %212, %213 : f32
      %216 = arith.addf %214, %215 : f32
      affine.store %216, %alloca_10[%arg3, %arg4, %c0_0] : memref<1x4x4xf32>
      %217 = affine.apply affine_map<(d0) -> (d0 + 5)>(%c0_5)
      %218 = affine.load %alloca[%arg3, %arg4, %217] : memref<1x4x8xf32>
      %219 = affine.load %alloca_9[%arg3, %217, %c0_0] : memref<1x8x4xf32>
      %220 = affine.load %alloca_10[%arg3, %arg4, %c0_0] : memref<1x4x4xf32>
      %221 = arith.mulf %218, %219 : f32
      %222 = arith.addf %220, %221 : f32
      affine.store %222, %alloca_10[%arg3, %arg4, %c0_0] : memref<1x4x4xf32>
      %223 = affine.apply affine_map<(d0) -> (d0 + 6)>(%c0_5)
      %224 = affine.load %alloca[%arg3, %arg4, %223] : memref<1x4x8xf32>
      %225 = affine.load %alloca_9[%arg3, %223, %c0_0] : memref<1x8x4xf32>
      %226 = affine.load %alloca_10[%arg3, %arg4, %c0_0] : memref<1x4x4xf32>
      %227 = arith.mulf %224, %225 : f32
      %228 = arith.addf %226, %227 : f32
      affine.store %228, %alloca_10[%arg3, %arg4, %c0_0] : memref<1x4x4xf32>
      %229 = affine.apply affine_map<(d0) -> (d0 + 7)>(%c0_5)
      %230 = affine.load %alloca[%arg3, %arg4, %229] : memref<1x4x8xf32>
      %231 = affine.load %alloca_9[%arg3, %229, %c0_0] : memref<1x8x4xf32>
      %232 = affine.load %alloca_10[%arg3, %arg4, %c0_0] : memref<1x4x4xf32>
      %233 = arith.mulf %230, %231 : f32
      %234 = arith.addf %232, %233 : f32
      affine.store %234, %alloca_10[%arg3, %arg4, %c0_0] : memref<1x4x4xf32>
      %235 = affine.apply affine_map<(d0) -> (d0 + 1)>(%c0_0)
      %236 = affine.load %alloca[%arg3, %arg4, %c0_5] : memref<1x4x8xf32>
      %237 = affine.load %alloca_9[%arg3, %c0_5, %235] : memref<1x8x4xf32>
      %238 = affine.load %alloca_10[%arg3, %arg4, %235] : memref<1x4x4xf32>
      %239 = arith.mulf %236, %237 : f32
      %240 = arith.addf %238, %239 : f32
      affine.store %240, %alloca_10[%arg3, %arg4, %235] : memref<1x4x4xf32>
      %241 = affine.apply affine_map<(d0) -> (d0 + 1)>(%c0_5)
      %242 = affine.load %alloca[%arg3, %arg4, %241] : memref<1x4x8xf32>
      %243 = affine.load %alloca_9[%arg3, %241, %235] : memref<1x8x4xf32>
      %244 = affine.load %alloca_10[%arg3, %arg4, %235] : memref<1x4x4xf32>
      %245 = arith.mulf %242, %243 : f32
      %246 = arith.addf %244, %245 : f32
      affine.store %246, %alloca_10[%arg3, %arg4, %235] : memref<1x4x4xf32>
      %247 = affine.apply affine_map<(d0) -> (d0 + 2)>(%c0_5)
      %248 = affine.load %alloca[%arg3, %arg4, %247] : memref<1x4x8xf32>
      %249 = affine.load %alloca_9[%arg3, %247, %235] : memref<1x8x4xf32>
      %250 = affine.load %alloca_10[%arg3, %arg4, %235] : memref<1x4x4xf32>
      %251 = arith.mulf %248, %249 : f32
      %252 = arith.addf %250, %251 : f32
      affine.store %252, %alloca_10[%arg3, %arg4, %235] : memref<1x4x4xf32>
      %253 = affine.apply affine_map<(d0) -> (d0 + 3)>(%c0_5)
      %254 = affine.load %alloca[%arg3, %arg4, %253] : memref<1x4x8xf32>
      %255 = affine.load %alloca_9[%arg3, %253, %235] : memref<1x8x4xf32>
      %256 = affine.load %alloca_10[%arg3, %arg4, %235] : memref<1x4x4xf32>
      %257 = arith.mulf %254, %255 : f32
      %258 = arith.addf %256, %257 : f32
      affine.store %258, %alloca_10[%arg3, %arg4, %235] : memref<1x4x4xf32>
      %259 = affine.apply affine_map<(d0) -> (d0 + 4)>(%c0_5)
      %260 = affine.load %alloca[%arg3, %arg4, %259] : memref<1x4x8xf32>
      %261 = affine.load %alloca_9[%arg3, %259, %235] : memref<1x8x4xf32>
      %262 = affine.load %alloca_10[%arg3, %arg4, %235] : memref<1x4x4xf32>
      %263 = arith.mulf %260, %261 : f32
      %264 = arith.addf %262, %263 : f32
      affine.store %264, %alloca_10[%arg3, %arg4, %235] : memref<1x4x4xf32>
      %265 = affine.apply affine_map<(d0) -> (d0 + 5)>(%c0_5)
      %266 = affine.load %alloca[%arg3, %arg4, %265] : memref<1x4x8xf32>
      %267 = affine.load %alloca_9[%arg3, %265, %235] : memref<1x8x4xf32>
      %268 = affine.load %alloca_10[%arg3, %arg4, %235] : memref<1x4x4xf32>
      %269 = arith.mulf %266, %267 : f32
      %270 = arith.addf %268, %269 : f32
      affine.store %270, %alloca_10[%arg3, %arg4, %235] : memref<1x4x4xf32>
      %271 = affine.apply affine_map<(d0) -> (d0 + 6)>(%c0_5)
      %272 = affine.load %alloca[%arg3, %arg4, %271] : memref<1x4x8xf32>
      %273 = affine.load %alloca_9[%arg3, %271, %235] : memref<1x8x4xf32>
      %274 = affine.load %alloca_10[%arg3, %arg4, %235] : memref<1x4x4xf32>
      %275 = arith.mulf %272, %273 : f32
      %276 = arith.addf %274, %275 : f32
      affine.store %276, %alloca_10[%arg3, %arg4, %235] : memref<1x4x4xf32>
      %277 = affine.apply affine_map<(d0) -> (d0 + 7)>(%c0_5)
      %278 = affine.load %alloca[%arg3, %arg4, %277] : memref<1x4x8xf32>
      %279 = affine.load %alloca_9[%arg3, %277, %235] : memref<1x8x4xf32>
      %280 = affine.load %alloca_10[%arg3, %arg4, %235] : memref<1x4x4xf32>
      %281 = arith.mulf %278, %279 : f32
      %282 = arith.addf %280, %281 : f32
      affine.store %282, %alloca_10[%arg3, %arg4, %235] : memref<1x4x4xf32>
      %283 = affine.apply affine_map<(d0) -> (d0 + 2)>(%c0_0)
      %284 = affine.load %alloca[%arg3, %arg4, %c0_5] : memref<1x4x8xf32>
      %285 = affine.load %alloca_9[%arg3, %c0_5, %283] : memref<1x8x4xf32>
      %286 = affine.load %alloca_10[%arg3, %arg4, %283] : memref<1x4x4xf32>
      %287 = arith.mulf %284, %285 : f32
      %288 = arith.addf %286, %287 : f32
      affine.store %288, %alloca_10[%arg3, %arg4, %283] : memref<1x4x4xf32>
      %289 = affine.apply affine_map<(d0) -> (d0 + 1)>(%c0_5)
      %290 = affine.load %alloca[%arg3, %arg4, %289] : memref<1x4x8xf32>
      %291 = affine.load %alloca_9[%arg3, %289, %283] : memref<1x8x4xf32>
      %292 = affine.load %alloca_10[%arg3, %arg4, %283] : memref<1x4x4xf32>
      %293 = arith.mulf %290, %291 : f32
      %294 = arith.addf %292, %293 : f32
      affine.store %294, %alloca_10[%arg3, %arg4, %283] : memref<1x4x4xf32>
      %295 = affine.apply affine_map<(d0) -> (d0 + 2)>(%c0_5)
      %296 = affine.load %alloca[%arg3, %arg4, %295] : memref<1x4x8xf32>
      %297 = affine.load %alloca_9[%arg3, %295, %283] : memref<1x8x4xf32>
      %298 = affine.load %alloca_10[%arg3, %arg4, %283] : memref<1x4x4xf32>
      %299 = arith.mulf %296, %297 : f32
      %300 = arith.addf %298, %299 : f32
      affine.store %300, %alloca_10[%arg3, %arg4, %283] : memref<1x4x4xf32>
      %301 = affine.apply affine_map<(d0) -> (d0 + 3)>(%c0_5)
      %302 = affine.load %alloca[%arg3, %arg4, %301] : memref<1x4x8xf32>
      %303 = affine.load %alloca_9[%arg3, %301, %283] : memref<1x8x4xf32>
      %304 = affine.load %alloca_10[%arg3, %arg4, %283] : memref<1x4x4xf32>
      %305 = arith.mulf %302, %303 : f32
      %306 = arith.addf %304, %305 : f32
      affine.store %306, %alloca_10[%arg3, %arg4, %283] : memref<1x4x4xf32>
      %307 = affine.apply affine_map<(d0) -> (d0 + 4)>(%c0_5)
      %308 = affine.load %alloca[%arg3, %arg4, %307] : memref<1x4x8xf32>
      %309 = affine.load %alloca_9[%arg3, %307, %283] : memref<1x8x4xf32>
      %310 = affine.load %alloca_10[%arg3, %arg4, %283] : memref<1x4x4xf32>
      %311 = arith.mulf %308, %309 : f32
      %312 = arith.addf %310, %311 : f32
      affine.store %312, %alloca_10[%arg3, %arg4, %283] : memref<1x4x4xf32>
      %313 = affine.apply affine_map<(d0) -> (d0 + 5)>(%c0_5)
      %314 = affine.load %alloca[%arg3, %arg4, %313] : memref<1x4x8xf32>
